#version: 0.2 - Trained by `huggingface/tokenizers`
す る
ま す
い る
か ら
こ と
2 0
で す
あ る
な い
1 9
れ る
い う
ッ ク
ッ ト
よ う
そ の
な ど
0 0
ま し
リ ー
イ ン
な っ
あ り
ー ル
20 1
で き
タ ー
こ の
ス ト
ン グ
た め
な る
ラ ン
ー ト
も の
日 本
1 0
よ り
ま で
20 0
な り
シ ョ
ー ド
ー ス
ー ム
な く
デ ィ
ン ト
テ ィ
e r
イ ト
し い
ま た
か っ
そ れ
ッ プ
さ ん
た い
あ っ
ー ジ
ら れ
ま せ
i n
こ れ
1 2
でき る
o n
ラ イ
ショ ン
で し
え る
1 1
ュ ー
だ け
た り
フ ァ
お り
し ま
ょ う
a n
1 8
場 合
コ ン
e n
つ い
リ ア
バ ー
ン ド
キ ャ
ロ ー
な ら
し か
サ ー
カ ー
ス タ
そ う
プ ロ
だ っ
思 い
19 9
さ い
ス テ
1 5
時 間
ラ ー
レ ー
フ ォ
o r
3 0
a r
ー ク
レ ン
ジ ャ
a t
よ る
た ら
シ ャ
ア ル
フ ィ
大 学
よ っ
ん な
学 校
可 能
マ ン
受 け
自 分
取 り
チ ャ
会 社
使 用
1 6
め る
た ち
世 界
い い
イ ル
e s
な かっ
た だ
タ イ
サ イト
ック ス
こ ろ
か り
レ ビ
a l
な が
ブ ル
情 報
多 く
1 7
ッ ド
し く
東 京
でし ょう
リ ン
利 用
i t
ち ゃ
サ イ
必 要
ー ン
パ ー
19 8
レ ス
ッ チ
い っ
オ ー
1 4
け る
お い
っ て
放 送
1 3
大 き
テ レビ
せ る
なが ら
考 え
っ と
女 性
i c
く だ
s t
2 5
リ カ
ク ラ
無 料
シ ュ
ら れる
ナ ー
フ ェ
現 在
と ころ
ア ン
商 品
ラン ド
ー ズ
ど う
ア イ
プ レ
ま り
ダ ー
メ ン
感 じ
け ど
しか し
くだ さい
と も
行 っ
ス ター
多 い
ブ ラ
ベ ル
い く
00 0
l e
出 し
セ ン
5 0
h e
リ ス
2 4
ウ ェ
か け
19 7
時 代
持 ち
な ん
o m
し て
ア メ
ジ ェ
と き
プ リ
出 会
研 究
昭 和
作 品
コ ー
同 じ
以 上
ほ ど
2 1
ル ー
オ ン
ろ う
思 っ
アメ リカ
ネ ット
ビ ス
ウ ン
入 れ
英 語
上 げ
しま う
ら い
2 2
エ ン
201 8
紹 介
合 わ
r e
en t
問 題
さ ら
そ して
コ ミ
チ ェ
ク ト
2 3
サ ン
出 来
サー ビス
ジ ョ
良 い
て る
関 係
こ う
1 00
o u
ア ー
登 場
i s
け れ
パ ン
h t
4 0
o l
リー ズ
平 成
の み
フ ト
活 動
人 気
選 手
c m
行 わ
ま っ
や す
映 画
わ り
ド ラ
発 売
た く
19 6
グ ラ
ー ツ
存 在
キ ー
対 応
2 6
2 8
バ ス
i on
ゲ ーム
好 き
a c
デ ザ
購 入
ー ション
方 法
対 し
e t
a s
引 き
ダ イ
ニ ー
高 い
ナ ル
ス ペ
バ イ
a m
e l
仕 事
2 7
シ リーズ
サイ ズ
よ く
e d
販 売
参 加
ちゃ ん
o o
ラン ス
ル ト
付 け
さら に
地 域
開 発
シ ン
合わ せ
ロ ン
ち ら
マ ー
な た
そ こ
に て
r o
効 果
2 9
楽 し
201 7
ザ ー
生 活
お よ
セ ット
や っ
く る
フ レ
番 組
開 催
ス ク
ー タ
シ ング
デ ル
あ なた
電 子
開 始
リ ング
つ け
い ただ
わ っ
こ こ
ヴ ィ
内 容
事 業
め て
場 所
ニ ア
テ ン
状 態
く れ
ジ ュ
知 ら
ラ イン
カ ル
A N
な か
c h
I N
レン タ
シ ー
発 表
ラ ス
ま ま
in g
社 会
女 子
一 般
ケ ット
機 能
デザ イン
イン ト
結 果
出 演
ウ ィ
ス ポ
シ ア
持 っ
レ イ
6 0
ヴ ァ
I S
使 っ
代 表
う ち
以 下
w w
モ ン
も う
メ ント
カ ード
写 真
一 部
思 う
テ ー
ク ロ
た し
大 阪
マ イ
送 料
タ ン
i l
E R
食 べ
ア ップ
登 録
い つ
当 時
およ び
u s
ステ ム
ビ ー
ア ク
わ け
しま っ
ッ グ
音 楽
そ んな
シ ステム
チ ーム
結 婚
部 分
入 り
あ れ
付 き
ニ ュー
201 6
ピ ー
しま い
お け
中 国
今 回
キ ング
企 業
変 更
行 う
ネ ル
株 式
確 認
呼 ば
じ ゃ
ラ ク
ア ニ
ン ス
アル バ
自 動
価 格
ッ シュ
通 り
ポ イント
言 わ
m m
201 5
中 心
漫 画
a d
メ ール
O N
ス マ
ニ ング
ク リ
も ら
し れ
特 に
と っ
ブ ロ
違 い
技 術
i v
19 4
8 0
だ ろう
19 5
実 際
ソ ン
書 籍
ん ど
ハ イ
か る
管 理
使 い
o f
言 っ
な お
3 1
i g
オ リ
テ ル
ド ル
自 身
201 4
監 督
担 当
込 み
タイ プ
入 っ
す ぐ
モ デル
- -
i d
人 間
持 つ
カ ラー
提 供
が っ
く り
大 会
A R
201 0
意 味
向 け
出会 い
男 性
ト ラ
教 育
t p
201 2
ール ド
ひ と
イ ス
201 3
ま だ
鉄 道
セン ター
合 い
個 人
か つ
な けれ
相 手
以 外
ち ょ
調 査
専 門
ざ い
ライ ブ
ウ ス
ht tp
ワ ー
国 際
文 化
201 1
読 み
an d
以 降
く れる
彼 女
少 し
ペ ージ
t er
子 供
こ ちら
ご ざい
S T
ファ ン
エ ル
ま る
ほ か
生 ま
最 初
イ ツ
す す
ビ ュー
ジ オ
環 境
設 置
200 9
言 う
明 治
ティ ー
ア プリ
ス ー
a g
経 験
影 響
組 み
ニ ュ
t h
ホ ーム
デ ータ
い ろ
大き な
最 後
ルー プ
アニ メ
な し
200 8
全 国
ワ ン
バ ン
と て
期 間
い き
最 大
始 め
関 する
I C
買 取
すす め
試 合
起 こ
t he
200 7
設 定
及 び
見 る
a y
イ ド
とて も
3 5
べ き
バ ル
メ ー
く らい
フォ ーム
ら しい
ぞ れ
アルバ ム
委 員
マ ル
ガ ー
それ ぞれ
理 由
位 置
ド イツ
買 い
ウ ォ
本 当
キャ ン
やす い
基 本
中 央
立 ち
初 めて
パ イ
今 日
ブ ランド
フ ランス
契 約
イ ベ
ガ ン
が り
ユ ー
事 件
タ ル
S E
制 作
作 曲
グ ループ
o w
動 画
ネ ス
L E
リ スト
ポ ート
u r
u n
記 録
ソ フト
ジ ン
収 録
程 度
す べ
目 的
ら か
施 設
ッ カー
シ ェ
わ る
重 要
比 較
続 け
や り
公 開
発 生
す れ
まし ょう
ent a
c om
様 々
200 6
計 画
イン ター
状 況
ま ず
高 校
ら し
プ ラ
シ ーズ
地 方
全 て
ほ と
イベ ント
A T
一 人
経 済
説 明
ケ ース
デ ン
カ ップ
切 り
R enta
相 談
簡 単
メ ージ
7 0
フ ル
評 価
ミ ュ
9 0
ほと んど
セ ックス
都 市
も ち
t o
営 業
すべ て
ト リ
ッ ション
さ ま
セ ル
言 葉
20 00
シング ル
4 5
シーズ ン
予 定
込 ん
事 務
プレ イ
s e
卒 業
じ め
す ぎ
一 方
生ま れ
20 19
し ゃ
リー グ
a p
最 終
表 示
ー ター
年 度
作 り
撮 影
年 間
ちょ っと
あ まり
っ かり
i r
B S
機 関
脱 毛
チ ュ
特 徴
R E
電 話
特 別
歴 史
i m
ニ ック
ハ ン
終 了
出 場
み たい
自 然
料 理
攻 撃
最 高
実 施
限 定
出 す
記 念
非 常
ホ テル
京 都
ラ イト
続 き
優 勝
所 属
か なり
ジ ア
し よう
3 6
ピ ン
新 しい
ボ ー
通 常
ト ル
決 定
メー カー
名 前
ユ ニ
と う
対 象
4 8
S t
メン バー
治 療
同 年
チ ン
わ ら
プ ル
海 道
レ ディ
最 近
200 5
た っ
指 定
業 務
気 持ち
スポ ーツ
T O
シャ ル
ドラ マ
出 身
カ ン
行 く
ク ル
同 様
採 用
ディ ア
ボ ール
料 金
病 院
u m
普 通
M A
時 期
用 い
選 択
記 事
自 由
種 類
I I
か し
ま と
大き く
行 き
ど の
ろ ん
いただ き
ほ う
ド レス
ディ ング
対 する
一 番
家 族
以 前
キ ュ
3 3
ど こ
コ ード
ハ ー
の 子
e c
支 援
なん て
コ ース
落 ち
同 時
9 7
最 も
ブラ ック
ラク ター
ス カ
完 全
もち ろん
ワ ーク
スー パー
A L
公 式
た る
e b
生 産
at ion
高 等
ア ウ
思 わ
工 事
査 定
店 舗
ジャ ー
k m
ダ ン
生 き
出 版
使 わ
5 00
強 い
ク リー
願 い
レ ク
スマ ホ
関 連
ギ ー
使 う
下 さい
い わ
ベ ース
メ ラ
フ リー
ティ ング
E N
つ き
設 立
業 者
ロ ッ
北 海道
画 像
文 字
戦 争
言 い
バ ック
ジャ ン
一 緒
げ る
政 府
や か
構 成
借 り
作 業
も っと
運 動
医 療
費 用
20 20
フォ ー
ト ップ
e m
ブ リ
能 力
A C
ど も
掲 載
イ ギ
クラ ブ
ビ ル
製 造
iv e
たく さん
注 意
3 8
世 紀
200 4
ト ン
チ ョ
先 生
展 開
キャ ラクター
3 4
企 画
ア ナ
O R
安 全
イギ リス
海 外
経 営
C D
安 心
建 設
素 材
総 合
oo k
イ メージ
保 険
全 体
増 え
ヤ ー
マ ス
交 通
申 し
ジョ ン
3 7
a k
公 園
製 品
T he
移 動
o t
3 2
. .
条 件
I n
U S
オー プ
し っかり
高 く
チャ ン
毎 日
政 治
レン ジ
変 化
地 区
銀 行
越 し
こ んな
加 え
ご と
運 営
ケ ー
ビ ジ
I T
テー マ
え ば
ヴ ェ
獲 得
み る
部 屋
レ ット
労 働
ショ ップ
は ず
ただ し
ブロ グ
http s
ば かり
与 え
原 因
ッ ツ
選 挙
野 球
イ タ
R O
人 物
フ ラ
アク セ
希 望
乗 り
P C
スタ イル
科 学
リー ス
女 の子
ぶ り
作 詞
行 い
近 く
A S
w it
当 初
も り
活 躍
d e
体 験
対 策
探 し
行 動
い たし
ダ ム
言 え
替 え
知 っ
務 め
い か
組 織
主 義
求 め
掛 け
タ イト
立 て
書 き
ミ ニ
スタ ッ
リ フォーム
新 た
3 9
理 解
B N
レディ ース
良 く
航 空
新 聞
あ と
韓 国
ビジ ネス
バ ッグ
H E
5 5
パ ート
作 っ
i a
収 納
ク レ
含 む
I D
交 換
バ ンド
け い
健 康
ク ス
成 功
も っ
200 3
出来 る
い け
住 宅
会 員
タイ ム
教 授
専 用
が る
かつ て
オリ ジ
デ ビュー
c o
は じめ
旅 行
中 古
い え
市 場
過 去
ぱ い
書 い
ジ ー
a b
イン ド
サ ッカー
審 査
ラ ル
か く
スタッ フ
u t
い た
ニュ ース
つ つ
追 加
異 なる
ダ ウン
試 し
レ ベル
国 内
オリジ ナル
指 導
on e
ノ ー
リ オ
カ メラ
レ ース
よ い
打 ち
搭 載
可 愛
関 し
ロ ード
少 女
小 さ
物 語
ナ ン
設 計
保 護
ラ ジオ
有 名
導 入
決 め
ベ ッド
製 作
売 り
ら く
ミ ー
か い
ポ ン
u l
r i
し ば
チャ ー
完 成
IS BN
エ ア
C O
シ ル
o p
道 路
聞 い
協 会
映 像
ワ イ
複 数
学 生
ゆ る
見 え
まと め
表 現
す ご
クラ ス
運 転
ギ ャ
A M
詳 細
法 人
丁 目
キ ン
比 べ
ヨ ー
古 屋
H K
多 数
ート ル
o s
期 待
タイト ル
大 切
福 岡
か わ
リ リース
少 なく
ファ ー
事 故
T V
イタ リア
構 造
名 古屋
ロー ン
O K
意 識
違 う
発 見
ディ ー
連 続
a v
200 2
u b
こ そ
観 光
大 人
太 郎
目 指
ロ ック
も し
過 ぎ
プ ラン
U R
処 理
主 人
ル ス
時 計
返 し
ど んな
一 覧
読 む
ウ ンド
ベ ン
仕 様
レ ッ
含 ま
も と
スタ ン
と り
予 約
ワ イト
ホ ール
ボ ン
考 える
消 費
チェ ック
電 気
警 察
アウ ト
検 索
車 両
子 ども
制 度
作 成
流 れ
ほ ぼ
メ イ
通 信
4 7
ピ ア
無 い
メン ズ
ホ ワイト
エ ロ
0 1
200 1
不 可
距 離
いた だけ
ず れ
受 賞
議 員
報 告
規 模
繰 り
作 る
リー ン
誕 生
ダ ル
話 し
4 6
広 島
少 ない
J R
ナ イ
っ くり
ト ロ
沖 縄
知 り
ラ ム
デ ジ
時 点
er s
実 現
D V
連 絡
ロ シア
編 曲
C h
今 年
ラン キング
O S
N HK
協 力
注 文
つ く
テ ム
A n
フ ロ
周 辺
e w
判 断
路 線
リ エ
サ ポート
ミ ン
自 ら
取 っ
ビ ア
小 説
ト レ
マ ット
番 号
認 め
ミュ ージ
試 験
支 払
に く
き り
カ ラ
入 る
成 長
配 信
プ ライ
パ ス
ミ ング
ケ ア
廃 止
S P
必 ず
い は
宇 宙
活 用
障 害
メ イン
ig ht
o c
ジェ クト
ファ イ
ラ スト
3 00
es s
f or
レー ション
受け る
大 変
ウ ム
C M
カ バー
編 集
ス メ
少 年
戦 闘
横 浜
主 に
ソ ー
あり が
改 善
ま い
買 っ
ス コ
あ い
建 築
用 意
出 る
グラ ム
取 得
シ ーン
o v
スト ラ
プレ ゼ
アイ テム
ベ スト
イ ズ
A P
見 せ
限 り
人 々
美 術
団 体
会 議
込 ま
伝 え
オープ ン
ペ ン
メ ートル
インター ネット
ガ ス
口 コミ
起 き
朝 日
エン ジン
戦 い
ハ ッ
就 任
バ ラ
0 5
ピ ック
依 頼
国 民
楽し み
o g
カ リ
社 長
ま さ
ツ アー
c e
塗 装
N E
テ ク
7 5
劇 場
ウェ ア
ョ ン
ヶ 月
4 4
じ る
江 戸
フ ラン
通 販
i k
0 9
ブル ー
ブ ック
ア ド
独 立
ス ピ
マ ーク
工 場
発 行
全 く
魅 力
舞 台
8 3
例 えば
サ ラ
ギ ュ
リン ク
ある いは
基 づ
メ ディア
V E
見 つ
千 葉
直 接
参 照
S S
合 っ
い ずれ
ッ ズ
DV D
現 代
金 融
述 べ
ファ ッション
列 車
0 8
勝 利
演 奏
神 社
早 く
k g
年 齢
込 む
リ ット
9 9
生 徒
成 分
P h
共 同
み んな
コミ ュ
金 額
き っ
お か
フォ ン
方 向
教 え
な み
ゴ ン
動 物
名 称
合 衆
ww w
シャ ン
シ ュー
ワ ード
L ive
友 人
あ ら
大き い
ス ケ
A D
便 利
初 期
印 象
デ ュ
ゴ ル
シャ ツ
お く
産 業
サ ル
オ リン
ウ ル
今 後
白 い
F C
in d
スター ト
エ ッチ
出会 っ
キ ッチ
精 神
c t
被 害
強 く
O L
i p
平 均
帝 国
けれ ど
199 9
押 し
デ オ
ar t
見 積
飛 行
0 6
振 り
in e
事 実
家 庭
裁 判
あ の
エ ット
更 新
本 作
プ レー
読 ん
注 目
ち ん
ア ジア
フ ジ
取 引
朝 鮮
o d
以 来
美 容
ヒ ー
マ ッ
本 人
近 い
B ook
価 値
お き
キッチ ン
やす く
エ リア
B C
保 証
工 業
上 がり
息 子
プロ ジェクト
準 備
は り
空 港
ケ ーション
性 格
き れ
合 併
建 物
ヘ ル
身 体
高 速
B l
責 任
国 家
動 き
途 中
不 明
0 3
運 行
ト ー
人 口
含 め
最 新
画 面
リ ティ
話 題
食 事
ステ ージ
お っ
パ ラ
メ ル
興 味
コミュ ニ
なか なか
U N
コー ナー
バ ッ
せ い
二 人
再 び
弁 護
パ ソ
自 宅
4 9
悪 い
な ぜ
週 間
ユー ザー
あ たり
九 州
投 資
基 準
0 7
コミ ック
検 討
0 2
マ ネ
共 和
カ ット
学 園
地 球
当 たり
ワ ールド
続 い
か かる
十 分
B O
迎 え
知 識
ボ ード
199 0
作 ら
wit ter
行 為
ス ーツ
6 5
ッ セ
美 味
自 己
立 つ
整 理
ズ ム
雑 誌
安 定
扱 い
パソ コン
整 備
過 ご
解 決
失 敗
増 加
エ イ
た ま
マン ション
分 け
欲 しい
形 式
イ レ
i f
検 査
ロ ール
0 4
ア ラ
出 さ
グ ル
ト ゥ
人 生
雰 囲
プレゼ ント
雰囲 気
長 い
A K
外 国
199 8
ロ ング
デジ タル
集 め
空 間
4 00
5 9
ペ ット
通 し
ありが とう
ゅ う
スト ー
患 者
特 定
拡 大
や はり
伴 い
-- --
絶 対
や ら
i st
エ レ
地 下
あ げ
ピ ング
al l
ゴ ール
飲 み
範 囲
動 産
温 泉
安 い
ア フ
プ ラス
地 元
入 れる
ア ム
機 会
L O
オ ール
i e
明 らか
法 律
友 達
P S
ク リス
部 隊
呼 び
8 8
サ ロン
グ リ
ファ イル
届 け
ス スメ
1 000
ター ン
es t
ア カ
A l
運 用
S H
a z
ス キ
アイ ドル
オ ブ
ケ ン
いろ いろ
モ ノ
4 2
調 べ
エ ネル
解 説
装 置
海 軍
携 帯
L I
広 告
制 限
原 作
国 道
レ ート
演 出
ロッ パ
可愛 い
リア ル
難 しい
合 う
参 考
通 じ
ロ グ
199 7
決 勝
セ ント
ク ー
フィ ル
求 人
記 載
操 作
オ フ
ヨー ロッパ
オ ル
県 道
意 見
公 演
小さ な
ac k
挙 げ
R e
5 6
自 体
会 長
ゲ ン
ミ ス
そ も
外 壁
コ ール
エネル ギー
ハ ウス
ま く
5 8
わ かり
いただ い
ノ ン
ア リ
編 成
さ え
レ ッド
会 場
バ ージ
部 門
感じ る
米 国
満 足
コ ス
盛 り
テ スト
提 案
199 6
もら っ
A V
土 地
男 子
不 安
様 子
4 3
仲 間
自 治
ビ デオ
大 正
候 補
W E
リ ュ
エ スト
落 と
定 期
修 理
ス イ
機 器
女 優
規 定
ど れ
M E
危 険
大 型
普 段
相 場
ド ア
プロ グラム
ス ティ
心 配
化 粧
当 社
向 上
ト レー
分 野
装 備
文 学
ヘ ア
見 える
r a
勉 強
スペ ース
競 技
み な
表 記
残 っ
頂 き
199 5
ナ ス
連 合
世 代
もら う
止 め
つ まり
レンタ ル
ダ ブル
確 か
プ ト
市 民
付 い
ar d
開 業
調 整
主 張
っ きり
投 稿
パ ワー
発 展
の ち
教 会
進 め
電 車
乗 っ
買 う
Book Live
相 当
周 年
綺 麗
離 れ
睡 眠
徒 歩
s h
ツ イ
T BS
97 8
ざ ま
選 ぶ
広 く
追 い
ド ライ
T HE
愛 知
ポ ー
楽 曲
行 政
資 格
待 ち
統 領
細 胞
反 対
社 員
o b
か ん
募 集
や る
勤 務
新 潟
シャ ー
遺 産
標 準
ゲ スト
段 階
5 7
寄 せ
加 工
大 統領
忘 れ
連 れ
で に
植 物
4 1
保 存
キ シ
す でに
オ フィ
練 習
コ メント
神 戸
立 っ
さ っ
い ま
大 手
C H
わ から
デ ュー
SE X
リー ト
スペ イン
再 生
198 0
展 示
ど ちら
聞 き
ヨ ーク
ラ ボ
8 00
接 続
リ ック
神 奈
レ スト
民 主
豊 富
い ち
屋 根
指 揮
キ ス
上 記
働 き
上 がっ
所 有
選 び
ロ ス
形 成
有 効
資 料
変 わっ
アクセ ス
ヴ ォ
派 遣
福 島
取 る
質 問
199 4
芸 術
富 士
違 っ
il l
スペ シャル
M O
変 え
v er
セ ミ
さま ざま
移 籍
8 2
ッ ジ
要 素
埼 玉
ダイ ヤ
魔 法
独 自
カ テ
っ ぽ
ム ー
神奈 川
カ イ
ハッ ピー
焼 き
天 皇
スタ ジオ
関 西
学 習
方 式
el l
案 内
色 々
しか も
現 場
引 っ
問 い
しく は
バ ランス
6 00
終 わっ
ハ ード
置 き
オリン ピック
カ ナ
コ ロ
ホ ル
ナ イト
議 会
後 半
売 却
ギ リ
暮 らし
反 応
由 来
デ ー
続 ける
ト イレ
高 級
大 事
無 理
国 立
記 憶
悩 み
書 か
図 書
ク ライ
モ ード
く ん
郵 便
言 語
W eb
維 持
ビ ン
メ リット
ガ ル
文 庫
イン グ
コン ピ
イン テ
ず か
テー ブル
切 れ
ず っと
継 続
199 3
目 標
T E
作 用
強 化
p er
上げ る
致 し
示 す
な れ
グ リーン
ロ ボ
中 学
勝 ち
ニ コ
本 体
ポ リ
シン プル
T R
機 械
A I
ブ ン
手 術
唯 一
支 配
u e
8 9
抜 け
サイ ド
199 2
挑 戦
政 策
D E
も らい
コン ビ
at e
にく い
メ ニュー
方 面
ほ しい
全 員
信 頼
i o
ず つ
無 く
大 量
ッ キ
ぜ ひ
続 く
作 家
未 来
S h
かわ いい
介 護
果 たし
連 載
見 つけ
太 陽
統 合
B A
ティ ブ
本 来
テ ナ
イ ラスト
医 師
作 戦
現 実
ハ ンド
B E
クリー ム
性 能
静 岡
シ ート
日 常
7 7
若 い
コ ント
向 き
スマ ート
5 4
大 臣
組 合
従 来
か か
j p
た び
評 判
ou r
更 に
ち なみ
カ フェ
グ レ
6 4
か ける
分 析
グ ラン
ボ ディ
ラ ブ
モ ー
結 成
デ イ
認 定
前 後
パン ツ
Ph one
G E
n d
成 立
1 20
確 保
きっ かけ
スト ン
ストー リー
品 質
M I
な わ
メ モ
こ だ
p l
本 社
指 摘
食 品
ブ レ
チ ュー
199 1
プ リン
破 壊
全 身
関 東
天 然
イ エ
取 締
ッ ピング
伝 統
長 野
張 り
シ ック
ニュー ヨーク
セ フレ
ポ ケット
備 え
ロー マ
披 露
本 部
が ん
バージ ョン
負 担
認 識
ユニ ット
ニ ス
つ なが
使 える
し ろ
F F
同じ く
楽 天
建 て
ライ フ
ピン ク
トラ ック
結 局
当 然
代 わり
ダ ンス
交 流
n e
主 要
薬 剤
6 6
周 り
目指 し
起こ し
ショ ー
基 礎
ス キー
症 状
実 験
得 る
パ リ
だ い
差 し
山 口
東 北
キャ ラ
異 なり
日 々
198 9
達 成
お ら
批 判
ウェ イ
改 称
広 い
ヤ マ
予 想
9 5
ア ンド
8 5
つ ける
i Phone
巻 き
会 話
IN E
支 持
残 し
ヘ ッド
来 る
飛 び
ぱ り
優 れ
生 物
特 殊
選 ば
設 備
コンピ ュー
区 間
ア ート
毎 年
低 い
素 人
材 料
すご く
ダイ エット
示 し
ジ ット
看 護
ウェ ー
ホ ン
つ か
t e
速 度
きれ い
F A
ピ ース
付 近
ル ド
死 亡
対 戦
ag e
パ ッ
報 道
実 行
素 晴
9 6
回 り
P ro
気 軽
すぎ る
応 じ
長 く
送 り
p r
美 しい
趣 味
フォ ル
ボ タン
電 力
ネット ワーク
印 刷
ベル ト
地 震
い れ
ギ フト
マ マ
S U
クロ ス
楽 しい
ッ ター
ク ション
キ ロ
こ ん
大 戦
化 学
I G
小 学
マ スター
傾 向
g e
8 6
初 代
巨 乳
ガ ラス
オ ス
エ ステ
熊 本
レ ル
始 める
ール ズ
ウェ ブ
ロ ット
自 転
単 位
主 演
恋 愛
イン タ
移 転
ント ン
I P
既 に
メ ッセ
ow s
日 間
楽し む
訪 問
置 い
イ ー
エ ク
明 る
ッ シング
レン ズ
保 育
計 算
198 7
ぐ らい
描 い
プレ ミ
遊 び
ネ タ
ペ ーン
不 足
入 力
新 宿
197 0
固 定
ッ キー
連 邦
ス パ
描 か
く ら
内 部
求 める
ネ イ
俳 優
博 士
ジャ パン
ポ ール
す ら
デ ス
収 入
いっ ぱい
キャン ペーン
付 属
配 置
役 割
ゴ ー
198 8
教 室
札 幌
結 構
祝 い
視 聴
児 島
小 さい
ヒ ット
書 店
バイ ク
輸 送
カ ウン
ト ラン
ク ター
岡 山
な さ
u d
ケ ル
レク ション
休 み
N S
s p
脚 本
カ タ
深 い
台 湾
or t
上 手
秘 密
中 継
好 み
住 民
15 0
引 退
値 段
チ ー
知 る
残 り
ギ ター
直 し
レ ギュ
改 正
入 学
it y
r y
ニ ン
タ ウン
家 具
O P
一 切
A m
気 づ
パ ック
っ ち
se x
将 来
開 設
ワ イン
成 績
使 え
神 経
競 馬
次 第
負 け
5 2
a st
切 っ
組み 合わせ
W ind
ゆ う
当 て
N o
具 体
ウ ント
利 益
も しくは
) -
禁 止
各 地
7 6
メイ ク
発 電
p h
乾 燥
共 通
張 っ
) ,
適 用
請 求
換 え
大 好き
5 1
ア ス
べ く
ゴル フ
重 ね
間 違い
ド ロ
到 着
an t
正 式
B L
安 く
ク リア
県 立
育 て
政 権
応 援
経 由
おっ ぱい
レビ ュー
逢 い
シ ティ
P l
周 囲
感 染
設 け
し ん
ス リ
転 職
ゴ ールド
良 かっ
分 類
or d
Y ou
も ん
食べ る
近 年
一 時
集 団
制 御
ぷ り
野 菜
ポ ジ
効 率
ハ メ
トラ ブル
オ ート
事 前
推 進
医 学
ド リ
年 代
ナ ム
実 績
復 活
体 制
感 覚
長 崎
訪 れ
形 態
ファ ミ
除 く
鹿 児島
お しゃ
鈴 木
嬉 しい
季 節
資 金
Y O
選 ん
or e
スピ ード
コン テン
アナ ウン
積 極
系 統
ミュージ ック
答 え
着 物
わ かる
言 える
地 上
ほ ん
停 止
ち ょう
フレ ンド
離 婚
198 6
日 曜
処 分
セ ス
チェ ン
回 転
投 票
セン ス
5 3
土 曜
ミ ル
互 い
バイ ス
フレ ーム
父 親
終 わり
引 越し
レギュ ラー
不 要
リス ク
p p
id e
o k
美 人
古 い
ド ン
変 わり
覚 え
優 秀
男 女
ソ ロ
陸 軍
コ スト
な ぁ
シュー ズ
回 復
拠 点
戦 略
8 7
重 量
た と
ツ ール
いただ く
各 種
武 器
ソ ング
戻 っ
王 国
ンド ン
D I
か かっ
コ ート
最 適
背 景
べ る
フィ ン
r an
出 力
198 5
一 郎
i b
加 入
ピア ノ
集 中
兵 庫
おしゃ れ
復 帰
さ せ
昨 年
E C
兄 弟
栄 養
8 1
田 中
防 止
語 っ
ル ーム
パー ティー
タ ク
A Y
サ ージ
し かっ
オフィ ス
ロー ズ
a w
プロ デュー
照 明
ゼ ン
午 後
クレ ジット
以 内
出 逢い
一 定
上 昇
気 分
プロデュー サー
巨 大
当 日
カー テン
死 去
問い 合わせ
同 社
直 後
ジャ ケット
現 れ
ボ ックス
是 非
母 親
メッセ ージ
充 実
閲 覧
a h
課 題
オー ダー
コンテン ツ
所 在
本 線
た ん
ご 覧
助 け
ま つ
Wind ows
延 長
発 足
困 難
伝 説
LE D
施 行
勧 め
減 少
主 催
授 業
マット レス
佐 藤
ラン ク
丈 夫
構 築
テ イ
立 場
空 気
輸 入
か す
M P
b y
貢 献
インテ リア
奈 良
芸 能
ボ ル
か さ
駐 車
e x
.. .
理 事
コ ピー
進 出
始 まり
ブロ ック
レ コード
ら っ
超 え
6 3
198 4
A r
数 多く
テ レ
S p
ブラ ウン
が ち
農 業
日 時
レスト ラン
要 求
物 件
分 かり
借 金
や し
T h
at us
感 謝
t witter
仙 台
本 格
イ ヤ
ラン ダ
面 積
ド ー
始 まっ
スク ール
ら す
アー ティ
マ ッチ
手 段
了 承
IN G
ひと り
アフ リカ
向 かっ
ま ん
福 祉
し ょう
P r
寄 り
発 言
出 合い
病 気
教 師
m l
岐 阜
明 日
発 送
返 済
モ ンド
帰 り
マン ス
ル ール
お う
ル ート
ec t
ら しく
昨 日
i z
on t
グ ロー
香 り
元 年
新 規
I ON
与 える
20 21
理 論
ゾ ン
E D
en d
づ くり
6 2
以 後
系 列
セ レ
南 部
C l
H P
配 色
組 ん
革 命
a in
イ ナー
向 か
統 一
長 期
職 員
M S
金 属
進 ん
同 士
ヘ ン
売 る
分 から
ジ ル
容 量
ウ ッド
中 村
ダウン ロード
っ たり
よ れ
キャ リア
風 呂
機 構
u re
198 3
サ プリ
あ え
悪 く
ちゃ う
やっ ぱり
交 渉
f f
多 様
し み
生 地
ス ン
ロ ンドン
メ ガ
いわ ゆる
得 意
主 な
捨 て
9 8
as s
菓 子
ヴァ ン
は る
づ け
務 める
心 地
リ ュー
物 質
修 正
研 修
リー ダー
交 差
先 日
わ れ
う え
ショ ナル
K O
変 わら
ic e
払 い
解 消
6 7
石 川
定 め
将 軍
現 地
パ ーク
ティ ア
守 る
H D
D e
ミ ネ
キ ュー
記 述
G O
ゼ ロ
想 像
伸 び
マ ジ
挿 入
選 出
ウィ ン
過ご し
思 え
ド ゥ
it e
試し 読み
オ ッ
マ ラ
繰り 返し
い や
講 師
児 童
ント リー
勝 手
ア ント
L e
生 命
進 行
防 衛
198 2
連 携
実 践
人 妻
限 ら
秋 田
在 庫
カテ ゴ
ま ら
わ ずか
事 情
セ ール
痛 み
グ ッズ
通 っ
H T
場 面
ブ レー
渋 谷
送 っ
学 会
面 白い
ビ ング
無 し
M C
提 出
得 点
パ クト
至 る
a u
素晴 らしい
デザ イナー
博 物
証 明
N A
汚 れ
融 資
モ ニ
探 す
金 曜
落と し
合 計
基 地
UR L
18 7
スト レス
L INE
表 面
ク ール
ライ ダー
G B
ラ グ
正 確
ア シ
コー チ
模 様
セ ラ
や や
元 気
ティ ック
出 張
か かり
st atus
ちん と
6 9
プレイ ヤー
アーティ スト
け ん
ージ ャ
マッ サージ
E X
丁 寧
タ ブ
呼 ぶ
素 敵
T A
山 田
全 部
働 く
C om
ア マ
わ ざ
イン チ
N O
か れ
改 革
オー バー
う まく
付 ける
リ ズム
レ ント
快 適
幸 せ
コー ヒー
刑 事
正 規
クリ ニック
き ちんと
刺 激
ろ し
C P
宗 教
と ら
i an
豊 か
セ イ
当 該
た す
ツイ ート
コ レクション
新 作
訓 練
エ ー
住 ん
激 安
完 了
チャン ネル
セ ー
突 き
消 滅
デ リ
当 店
テ キ
予 算
普 及
クリス マス
小 型
わ たし
首 相
つ もり
平 和
198 1
吉 田
モ バ
フィ リ
6 1
コミュニ ケーション
楽し める
C E
中 華
吹 き
多 少
ヤ リ
q u
^ ^
すご い
左 右
そ ろ
笑 い
8 4
項 目
診 断
配 送
権 利
ベ イ
心 理
商 業
サ リー
本 日
u k
人 民
吸 収
動 作
ご ろ
マ リ
あ ろう
帰 っ
D S
高 齢
コン サ
197 9
サ ウンド
方 々
努 力
詳 しく
借り る
太 平
あら ゆる
ガ イ
ぐ る
持 た
あ たる
支払 い
コンピュー タ
オ プ
キャ ッシング
ヒ ロ
下 げ
始 まる
WE B
N ew
着 い
F M
領 域
オ イル
L L
I R
歌 手
体 育
決 まっ
196 0
王 子
なん か
U E
身 長
ホ ー
多 かっ
ジュ アル
ソ ード
i x
移 行
目指 す
置 か
味 わ
ケ ージ
M ar
は じ
下 記
バ ート
スキ ル
ソ ース
トレー ニング
内 閣
マ シン
コ コ
ア ダ
ゼ ル
職 場
v ol
ビ ット
予 防
取 ら
留 学
疲 れ
ワ イド
インタ ビュー
バ レ
姿 勢
ま ち
l y
アナウン サー
よ し
バ イト
著 作
方 針
東 海
同 一
感 情
ステ ル
コ マ
T S
込 め
ージ ュ
ツ ー
オ ペ
合 格
夫 婦
学 院
我 が
職 業
残 念
ザ ン
形 状
ニ ーズ
だ ん
古 代
ドラ ゴン
ちゃ っ
思 議
エ ピ
プ ー
定 義
ジャン ル
パー ツ
上 がる
前 回
イン スト
な に
最 低
U n
午 前
開 き
自 信
折 り
7 00
G A
確 実
カナ ダ
詰 め
逮 捕
宮 崎
オー ストラ
共 演
洗 面
向か う
n et
入 手
フィ ー
高 額
モバ イル
V ol
* *
犯 罪
水 着
富 山
音 声
抑 え
司 令
サ ム
し ょ
W i
信 じ
グ レー
チ ラ
亡 く
置 く
清 楚
ナ ビ
生 じ
あ わ
捜 査
i al
オーストラ リア
ピ オン
シ ナ
軍 事
セ ク
美味 しい
高 橋
デ ート
温 度
早 い
か 月
G oo
on d
197 8
意 外
連 盟
戦 後
許 可
パ ターン
保 管
投 げ
スト ア
体 重
規 制
キ リスト
197 2
不 思議
b e
財 布
首 都
幹 線
松 本
掲 示
工 学
徹 底
文 書
上 位
S O
6 8
ボ ク
変 わる
ど り
かか わら
や め
ic h
わ かっ
ロボ ット
が け
原 子
一 体
カ ワ
と に
王 座
宣 言
公 共
S A
理 想
初 回
F i
改 造
講 座
民 族
大 幅
放 題
K E
S u
ハ リ
債 務
働 い
共 有
頂 い
1 10
クリ ック
特 典
超 える
や く
フ ード
カ ス
恋 人
オー ディ
バ トル
触 れ
撮 り
翌 年
充 電
マ ガ
適 切
ば し
リー ド
新 人
ショ ート
申 請
や ま
抜 き
分 かっ
ト ーク
ニ ャ
オ ナ
北 部
現 役
ワ ク
マル チ
ル イ
とに かく
さ て
M L
フ ライ
皮 膚
ッ パー
探 偵
リー ム
大 丈夫
聞 く
し た
リア ン
たっ ぷり
分 割
ト ム
ゲ ット
手 続き
外 科
予 選
197 5
低 下
ッ タ
ボ ス
突 然
ア リー
9 00
議 論
イ オン
記 者
創 業
祭 り
i es
信 用
他 人
通 過
シ ロ
ネ ック
スポ ット
g r
H O
コンサ ート
憲 法
名 義
B e
ナ チュ
供 給
証 拠
山 本
ダ メ
ガ イド
隠 し
ディ ス
25 0
プレミ アム
三 菱
洗 濯
ラ ック
約 束
ロ ゴ
しば らく
サイ クル
逃 げ
瞬 間
掃 除
ージ ー
欧 州
197 3
197 6
だ し
厳 しい
惑 星
マ グ
一 括
パート ナー
ソフト ウェア
リア ム
シル バー
和 歌
コ ム
いく ら
ま え
面 白
業 界
サ ブ
艦 隊
大 分
か せ
フィ ールド
エ ス
機 種
ブル ク
9 2
a i
残 る
チャン ピオン
圧 倒
せ ん
命 令
p e
割 り
発 揮
ラン チ
I V
渡 し
まっ たく
進 化
荷 物
プ ール
ヤ ン
An d
割 れ
仕 方
流 行
深 く
コ ル
m an
P O
育 成
録 音
笑 顔
ダ メージ
箇 所
コ ラボ
A A
パ ネル
中 止
妊 娠
特 集
I O
197 7
事 項
ジョ ージ
就 職
ノ ート
b er
分 離
ふ れ
んど ん
タイ ミング
ぶ ん
p t
開 い
伊 藤
l d
s u
着 用
両 親
197 4
先 輩
清 水
宿 泊
D O
都 合
深 夜
バン ク
美 乳
9 4
優 先
g le
ベ ー
パッ ケージ
在 籍
フェ ラ
浴 衣
基づ い
イル ス
応 募
生 み
ショ ッピング
解 散
ub e
結 び
宮 城
条 約
取 材
不 満
疑 問
扱 う
殺 人
S I
顧 客
即 日
異 常
ど んどん
メ イド
名 誉
パ フォー
代 理
9 3
オッ パイ
ミ サ
ミ リ
あ ん
レ オ
発 射
確 定
フロ ント
考 慮
と る
編 入
モン スター
面 倒
ニ ッ
茨 城
小 林
勢 力
震 災
現 状
手 法
抵 抗
U T
c l
ハ ウ
山 形
主 題
ウォ ー
危 機
強 制
原 則
も たら
ビ ッグ
義 務
避 け
タ グ
陸 上
地 名
ケー ブル
ハ ート
放 射
ドライ バー
青 森
近 代
降 り
ラー メン
ちゃん と
メ ダル
平 日
あ き
そも そも
er v
酵 素
レ ザー
収 集
通 う
そ ば
シェ ル
ap an
エ リ
まさ に
前 半
F I
納 得
W h
災 害
苦 手
駅 前
半 分
197 1
遅 れ
が い
サ ンド
上 野
把 握
レー ザー
楽し ん
r om
否 定
が ら
川 崎
創 設
端 末
受 験
駆 け
知 事
オ ーク
停 車
アク ション
タ ッチ
決 済
現 象
な あ
歯 科
よ ろ
元 々
ノ ル
声 優
ス リー
施 術
ar e
次 郎
ま あ
コー ディ
済 み
... ]
敗 れ
後 ろ
楽 器
ア ミ
o x
青 年
有 する
短 期
部 品
月 曜
ク イ
オプ ション
E x
ス パイ
en s
回 数
免 許
ケー キ
━ ━
物 理
思 想
ac e
継 承
検 証
刊 行
メ ジャー
カ スタ
浮 気
イ チ
呼 ん
よ かっ
指 示
196 9
か ね
事 態
プ レス
指 名
もら え
書 房
課 程
テ リー
高 度
嫌 い
演 じ
フォ ード
っ こ
仮 面
生ま れる
カ ロ
キ ラ
チー フ
観 測
an g
ス ラ
アクセ サリー
アイ ス
P R
ヒ ト
ま れ
ジュ ニア
キ ット
雑 貨
W A
大 陸
お こ
E S
ベ ット
お も
り ん
う る
走 行
重 視
楽 しく
再 開
解 放
ビ タ
[ ...]
海 岸
アルバ イト
詐 欺
衣 装
チ ケット
p ro
新 設
見積 もり
論 文
バ リ
入 社
シ ップ
伊 勢
賃 貸
旅 客
正 しい
伴 う
a il
ア レンジ
ど ころ
自 衛
受 付
徳 島
ポジ ション
or y
ステ ン
9 1
ド ライブ
単 行
慣 れ
福 井
信 号
初 め
C A
大 和
セ プト
消 防
資 産
問 わ
阪 神
ペ ル
ヒ ル
ナン バー
人 数
ティ ン
施 工
進 む
越 え
の り
歩 い
受け 入れ
プ ス
も とも
もとも と
我 々
パフォー マンス
遺 伝
天 井
判 定
足 り
合 成
ホ イ
オ ランダ
196 8
た か
加 藤
買い 物
仕 上げ
もら える
引っ 越し
筋 肉
アカ デ
u st
ac h
直 前
書 く
確 率
is h
s m
熟 女
天 気
測 定
住 む
ビ ール
き っと
ざ る
軌 道
たと えば
ジュ ール
初 心
飲 ん
民 間
明 確
E n
ダ ード
あ く
会 い
釣 り
高 め
フィル ム
S e
参 戦
7 2
こだ わり
プリ ント
ウ イルス
返 す
日 記
衝 撃
ッ コ
エ キス
パ ル
売 れ
補 助
両 方
協 議
ひ ろ
学 び
学 ぶ
お そ
優 しい
支 店
ラ リー
関 心
電 源
雇 用
待 っ
もっと も
トリ ック
透 明
任 意
戦 士
姉 妹
同 盟
翻 訳
7 8
た かっ
C K
リ ラ
チェン ジ
出 現
in t
も つ
想 い
だ ら
ウィ リアム
通 称
活 性
フ ット
進 学
グラ フィ
as h
メ ロ
改 良
レッ スン
沿 っ
ド キ
三 重
ソ ナ
外 部
19 50
シ ス
G r
遺 跡
モ ール
ゲ ル
投 手
毎 週
柔 らか
マン ガ
チェ ーン
b l
宅 配
脂 肪
a f
エ コ
渡 辺
だ り
地 図
ーン ズ
広 げ
ハ ル
格 安
Al l
o y
ちゃ い
単 独
コミュニ ティ
数 字
ゆ き
出 産
ジェ イ
タブ レット
R A
期 限
ス ピー
決 める
タイ ヤ
テ ロ
真 っ
デュ ース
通 勤
帰 国
マ ク
エピ ソード
レ シ
C L
o to
香 港
積 み
自 社
あ す
なく なっ
乗 車
事 例
ジェ ル
ゴ ム
チャ ンス
ベ ト
殺 害
用 いる
エン ディング
ハ ム
ト ライ
抱 え
R T
ケ イ
紀 元
しば しば
取 れ
C T
回 っ
カ ート
回 答
沢 山
ス ム
終 え
道 具
ウ ルト
S D
L D
結 ぶ
手 軽
回 る
正 直
申し 込み
婚 活
成 果
空 き
診 療
ジャン プ
促 進
若 干
短 い
ov e
人 工
主 婦
レー ター
翌 日
スタ ント
ト ヨ
人 形
療 法
G P
国 産
ジョ ー
知 れ
揃 え
H I
徐 々
機 体
共 産
人 類
コン セプト
プレ ート
爆 発
前 作
皇 帝
語 り
プロ デュース
合わ せる
wit h
a x
チョ コ
群 馬
風 俗
な き
緊 急
複 雑
いただけ る
手 間
目 安
前 年
想 定
ウルト ラ
コンビ ニ
相 続
u c
強 力
単 純
おか げ
数 値
伝 える
ディ スク
後 期
色 相
ファミ リー
O FF
役 所
装 着
概 念
規 格
196 7
カ ール
貨 物
T witter
S c
用 途
執 行
タ リー
人 材
近 所
週 刊
ベ ート
リ ル
ジャ ック
セ キュ
拡 張
ク エスト
取り 入れ
中 身
描 く
H e
世 話
on g
若 者
チ ック
制 定
T e
レク ター
と おり
貴 族
仕 組み
ユ ダ
甘 い
サ ス
貸 し
E T
ゆ っくり
感 想
当 選
M M
英 国
ar y
C o
as e
哲 学
コ イン
サー バー
m e
194 5
ヨ ン
過 程
恐 れ
国 会
ブラ ジル
昇 格
歌 詞
エ ンド
カ ム
コ ア
岩 手
摂 取
競 走
コント ロール
任 せ
ダ ーク
感 動
兵 器
キャン プ
MA X
オープ ニング
B r
開 か
テ イン
疾 患
ブ ラン
タ レント
騎 士
踏 み
II I
区 域
相 互
ネ ーム
らっ しゃ
決 して
ジ ム
手 伝
久 保
調 理
メ ディ
証 券
ス キン
スポ ン
テー プ
配 合
手 数
送 信
割 引
S C
あく まで
和歌 山
み れ
ペ ア
M y
コーディ ネ
デ ア
コ ット
機 動
要 望
不 倫
つい に
乗 る
変 える
再 現
シ ミ
す なわ
すなわ ち
半 島
セミ ナー
7 4
分 かる
ディ ズ
家 電
大 半
変 換
っぽ い
室 内
提 示
oc k
起こ す
殺 し
会 計
加 盟
---- ----
マー ケ
往 復
チャ レンジ
ビタ ミン
L A
i le
スタ ンド
メ タル
az on
ナ ショナル
スタン ダード
電 池
メ キシ
ブ レイ
エン ジ
ヴァ ー
18 0
幼 稚
テ ニス
フ ロー
容 易
は っきり
か え
個 性
悩 ん
次 元
風 景
布 団
リ ゾ
パ ク
認 知
T H
ホ ット
ス ル
中 間
塗 り
3 000
m ent
栃 木
余 裕
セン チ
執 筆
従 っ
困 っ
毎 月
失 っ
h er
消 え
フィ ット
文 章
S NS
沿 い
三 郎
ド ーム
講 演
長 官
ステ ップ
ソ ウル
Goo gle
当 たる
思い 出
実 家
高 知
西 部
定 番
キ ッズ
視 点
196 4
隣 接
ic k
7 3
軽 量
トヨ タ
o h
判 決
ケ ート
ガ ード
ば ん
属 性
燃 料
弊 社
上 下
取り 組み
流 し
が て
諸 島
頑 張っ
マ イル
集 合
T r
返 品
歓 迎
判 明
赤 ちゃん
196 6
ct ion
G M
承 認
ちょう ど
まだ まだ
経 過
収 め
T T
育 毛
街 道
R es
ライ ター
措 置
表 情
血 液
と ん
さ す
クラ シック
ウ ド
全 然
プ ロー
崩 壊
1 30
ね る
スカ ート
退 職
扱 っ
違 反
おそ らく
マ リア
オ レンジ
出 発
校 舎
196 5
アカデ ミー
規 則
マイ クロ
およ そ
井 上
あわ せ
苦 労
金 利
む しろ
栽 培
通 貨
バ レー
or k
提 携
学 ん
軽 く
プロ ダ
一 種
コン パクト
広 場
カ レー
開 け
衆 議
チャ ート
財 産
ユダ ヤ
o st
ネ コ
いろ んな
驚 き
ソ 連
保 有
支 え
基づ く
取り 上げ
回 し
長 男
締 め
エンジ ニア
馴 染
め ぐ
防 御
レ ール
並 び
ディズ ニー
ーク ス
s s
起こ る
F E
臭 い
代 引
長 年
生 成
話 す
イ ク
開 通
H z
レ コー
連 結
書 類
有 料
発 達
フィ ール
赤 い
今 度
台 風
学 科
ステ ーション
マーケ ティング
売 上
5 000
改 めて
冒 険
ブ ライ
引き 続き
メキシ コ
k y
い らっしゃ
商 店
出会 う
指 す
クー ポン
悪 魔
具 合
酸 化
と って
前 提
占 い
会 っ
抜 群
し も
電 動
ご く
ア ロ
エ ド
統 計
医 薬
実 感
起こ っ
ガ ール
グ ランド
最 強
ナチュ ラル
U P
習 慣
フェ イス
ミ ラー
資 本
さ り
戻 し
競 争
バッ テリー
対 立
勝 負
グラ ス
マ ックス
マ ニア
w e
ラン プ
対 抗
需 要
イン ディ
走 り
さ と
損 害
ウ エスト
エア コン
先 端
チ ル
武 蔵
建 造
B R
A d
藤 原
近 づ
財 団
スカ イ
性 欲
継 い
一 気
ベト ナム
開 幕
市 長
鎌 倉
イ ケ
ナ ップ
ミ ック
I A
LI VE
ア レ
拒 否
モ ーター
二 十
ro id
別 れ
ポ ップ
差 別
さ くら
椅 子
彼 氏
ダイヤ モンド
洗 い
行 か
世 帯
リ コ
講 談
な す
ど ん
ボー カル
ビ ュ
前 述
b r
ギャ ル
ウェ ル
控 え
流 れる
消 し
無 線
取り 付け
ハ ワイ
本 名
C C
レ ム
明 け
D J
テク ノ
特 急
ポー ランド
滞 在
幅 広い
シ カ
D r
不 良
悪 化
モ ダン
激 しい
おい しい
衛 門
ベ ビー
と く
ON E
ベ リー
ou t
後 継
AN D
7 9
必 須
死 ん
は ん
要 因
住 所
歩 く
市 街
小 田
ポ ーター
エレ クト
パ ナ
グラン プリ
該 当
や がて
スト リート
転 換
キャ スト
い える
意 思
ハ ラ
見 せる
実 力
態 度
た て
in k
東 洋
並 ん
佐 賀
新 品
安 倍
次 い
よろ しく
天 使
レー ベル
わ たっ
ア ドレス
バラ エ
公 表
戻 る
C on
き ょう
ac t
司 会
薬 局
あえ ず
196 3
is s
起 用
保 障
厚 生
ツ ィ
大 賞
イング ランド
パ ウ
描 き
イス ラ
分 かれ
p s
か た
im e
戦 車
大 使
オリ ゴ
っ ちゃ
パ ール
創 立
独 特
送 る
エン ター
ス イス
に ち
us ic
ミ ックス
地 位
車 体
無 駄
アプリ ケーション
16 0
ミサ イル
切 る
ゴール デン
先 行
チェ ア
ウェブ サイト
ヒ ュー
e y
千 代
休 日
D A
サ イン
u g
C S
終 わる
別 途
ひ び
回 避
フォ ト
手 紙
気 温
ファン タ
P L
or ld
ツ ェ
大 字
c c
集 まっ
有 し
ジア ム
セキュ リティ
売 っ
ルー ツ
削 除
下 り
レッ ジ
ポ スト
山 梨
観 察
比べ る
レシ ピ
オ イ
タン ク
や さ
任 務
応 用
と ど
各 国
ソ ニック
通 算
小 物
防 ぐ
従 業
ポ ルト
スタ ジアム
極 めて
ヴィ ン
語 る
残 さ
表 明
フォル ニア
ブレー キ
ミ ナル
とり あえず
TO K
でき れ
ネ イル
黒 い
特 性
飲 む
とって も
四 国
走 る
ブ ー
ドラ ム
スイ ッチ
立 た
トン ネル
リゾ ート
解 釈
新 型
ワ シ
スト レ
インスト ール
ビ ック
衛 生
グレ ード
ク イズ
あ げる
幕 府
7 1
ソ ニー
そ り
出 かけ
出 荷
小さ く
河 川
ビ リ
よう やく
十 字
表 す
聞 か
区 分
々 木
ジェ ット
八 幡
oo d
発 信
依 存
成 人
シェ ア
保 健
東 部
じ み
古 く
テク ニック
確 立
回 収
195 5
マガ ジン
急 行
フ ー
はる か
池 田
まる で
一 生
守 り
毎 回
著 者
196 1
次 々
C ol
食べ 物
数 々
器 具
アメリカ ン
攻 略
有 り
ロ ウ
196 2
未 満
カ ジュアル
挨 拶
貴 重
ガン ダム
数 学
ライ ド
J apan
ポ ル
個 別
You T
買 収
当たり 前
W S
達 し
ジャ ズ
緊 張
わ し
旦 那
売 買
カリ フォルニア
既 存
テ ッド
キャン セル
循 環
後 述
で る
ラ ウンド
愛 媛
バ カ
管 轄
職 人
マー ケット
F L
性 質
テ ーション
ッ サ
中 山
モ チーフ
E P
再 度
無 事
金 沢
渡 り
生き る
B M
ビー チ
暴 力
側 面
国 鉄
i P
創 造
専 攻
t y
や つ
ゲ ー
アド バイス
エ ース
司 法
M ac
地 点
弱 い
u p
And roid
マ ップ
飲 食
引 越
鳥 取
やり 取り
寺 院
ピ ュ
資 源
描 写
サン プル
A pp
ヴェ ル
d er
エ フ
つ ぶ
木 曜
v s
予 備
兼 ね
北 朝鮮
レ ポート
南 北
リ ニュー
敷 地
オナ ニー
ゆ く
銀 座
実 質
of t
Am azon
本 物
コ ク
む ら
浮 か
ア ト
臨 時
戦 隊
戦 う
中 部
宣 伝
飾 り
解 析
つ な
ゲ ート
休 止
14 0
認 証
前 日
アニメ ーション
木 製
キャ スター
D F
迷 惑
エ ム
中 野
リニュー アル
玄 関
ブ ーム
背 中
配 慮
単 に
ク ロー
監 視
スク リーン
ヴァ イ
黄 色
読 者
194 7
属 する
手 当
出来 事
t r
貿 易
走 っ
ぴ ったり
B B
区 別
f l
本 塁
誇 る
ar k
コ ツ
歩 き
ウォ ーター
F l
いか が
兵 衛
バス ケット
AC K
エン タ
ww ww
モニ ター
ウ ト
ガー デン
エ リー
向 い
S F
ゾ ーン
キ ビ
分 解
階 級
コン サル
レ ジ
P G
レ ア
関 わら
徳 川
低 く
ア タ
限 界
イ カ
オー ナー
ハ マ
G T
y r
ネ ク
c on
スト リア
ター ミナル
am e
変 身
至 っ
現 金
興 奮
作 者
受 信
レン ダー
シ リ
命 名
増 える
プロー チ
どう ぞ
I E
ひ ど
ア プローチ
ふ る
同 日
US B
滋 賀
アダ ルト
水 準
香 川
な う
戻 り
居 住
じ ん
公 立
ス ウェー
揚 げ
ゴ ミ
出会 え
プ チ
用 語
ア パート
メ タ
ハ ロ
フェ ア
推 定
フ リ
ブ ーツ
美 女
珍 しい
K A
破 産
保 持
ド キュ
ペ ー
M B
入 院
バー グ
た た
サ ク
衛 星
出 席
許 さ
祖 父
In ter
て ん
果 たす
観 客
スウェー デン
工 夫
ッ カ
アイ デア
ラ ・
カウン ター
我 慢
カウン セ
ペ ース
一 致
弟 子
適 し
組 む
登 山
読 める
繊 維
投 入
195 4
at a
突 破
浴 び
配 布
195 9
上 映
BO X
キャ ッチ
ダイ ニング
進 み
生 じる
財 政
プロ セス
さす が
収 容
ベル ク
委 託
結 合
ic s
ディス プレイ
サ ウ
閉 鎖
月 額
マ ツ
タ ワー
ステン レス
分 布
スコ ット
リ ビング
ア ポ
スト ーン
ポ リエ
金 剛
ず み
試 み
信 仰
C R
制 服
ス チ
会 う
マ イン
an n
フェ ル
材 質
m g
イエ ロー
ハー フ
エ ディ
メモ リ
あ たっ
木 村
J AP
コ レ
削 減
歌 っ
割 合
ショ ック
ング ル
本 気
じ ょう
モ ーション
f e
関 わる
埋 め
195 8
呼 吸
諸 国
エ ール
194 4
撤 退
195 6
いか に
ド リンク
は や
従 事
天 文
フロ ア
タク シー
と れ
タ バ
いき なり
アウト ドア
en ce
食 材
保 湿
ギ ン
合 意
火 災
先 発
ベ ーション
ト ランス
避 難
st r
無 視
量 産
194 8
外 交
主 体
復 興
E d
フラン ク
スタ イ
せ っ
半 年
実 用
シュ タ
球 団
ゆ え
水 曜
ア イル
デ モ
am p
流 通
同 期
接 触
ネ ー
決 意
引 用
意 図
y l
和 田
Bl u
アル ミ
ショ ット
落ち 着い
m in
役 立つ
グロー バル
AR T
入 口
ヒー ロー
コ イル
カタ ログ
楽し め
ド ウ
食 い
ic a
分 子
ou nd
全 長
自 民
テキ スト
任 命
ビ ジョン
ディ レクター
ご 飯
原 発
O W
プロ レス
巨 人
バ ース
入 荷
演 劇
女 王
] [
師 団
予 測
結 ん
解 除
ミ ッション
本 編
内 側
順 位
正 常
好 評
エ ジ
対 処
格 闘
新 築
i er
メ カ
上 司
変 動
芸 人
年 金
喜 び
まし い
特 許
データ ベース
フィ ア
恐 怖
マ スク
O r
ぜ ん
向 かい
リ モ
外 し
会 館
お お
乗 せ
異 なっ
テイン メント
協 定
フ レー
194 9
ニ ット
F O
締 結
Bl ack
194 1
V ER
ク ン
フェ ン
小 野
住 まい
JAP AN
ス ティー
D C
ファー スト
面 接
にく く
ミ ッド
率 いる
報 酬
あ らか
久 し
譲 渡
訴 訟
コ ロン
ソ ファ
チュ ア
海 上
19 40
豪 華
体 調
怒 り
改 修
シャン プー
老 人
合 流
ビ ッチ
クラ ウド
E L
武 装
エ ト
振 る
ight s
取り 組ん
レ イン
北 京
オー ストリア
たま に
愛 し
ら ん
下 部
仮 想
グ ロ
駆 逐
ヒロ イン
フラ ワー
カテゴ リー
ou n
グル メ
ation al
め ん
尽 く
迎 える
要 請
進 める
隠 れ
e p
送 ら
メ ス
聞 こ
振 興
う た
ロー カル
一 族
ボー イ
稲 田
チ ーズ
輸 出
演 技
見 学
行 け
容 疑
キ レイ
M e
for m
V er
代 金
怖 い
び っくり
パ パ
す み
支 部
や っと
YouT ube
見 事
K I
出 せ
頻 繁
漢 字
部 下
ポ ケ
通 知
創 作
憧 れ
東 証
取 扱
プライ ベート
プラ ット
ガ ラ
コス プレ
連 隊
消 化
プ ター
パー ティ
東 映
命 じ
グラ フ
現 れる
ig n
i re
ま わり
バ ード
切 手
モ ア
濃 厚
ージ ェ
サー クル
あらか じめ
火 曜
an k
個 体
移 住
キャ ップ
民 国
象 徴
M V
P V
ic al
カ ジ
15 00
バイ オ
パイ ロット
サ クラ
占 領
年 収
s c
電 鉄
反 発
生 涯
攻 め
精 力
ブ ス
画 家
プロ フィール
処 方
相 撲
ブラ ウ
明る い
関 節
反 映
ol l
瀬 戸
自 殺
スペ ック
解 体
スト ライ
アン ティ
ライ バル
マ リー
マイ ケル
パー ソナ
占 め
誘 導
全 面
停 留
プリ ング
兵 士
う つ
した がっ
ソ ル
子 育て
ま ぁ
真 実
ユ ース
訴 え
見つ ける
S L
次 回
G I
我が 家
シア ター
ol d
iv ers
登 板
運 命
角 度
アル コール
n b
D R
愛 称
奥 行
み よう
不 正
F or
アン ダー
空 軍
チ ップ
内 科
増 し
突 っ
た け
ガ リ
195 7
看 板
買 取り
見 れ
さ わ
セ ブン
広 がっ
ガ ールズ
チン コ
コ モ
A B
潜 水
北 緯
フィリ ピン
青 春
渡 っ
ラ テン
上 海
ピ ール
応 え
申し 上げ
侵 入
キ リ
195 2
所 得
デ ッキ
替 わり
世 間
グラフィ ック
仏 教
ージャ ー
店 頭
194 3
衝 突
防 水
ッ キング
ネ オ
合 同
エ ントリー
放 置
ダ ニ
マラ ソン
の 中
スー プ
スリ ム
医 者
軽 減
表 紙
基づ き
上 部
ぶ っ
ア レル
G R
日 中
チ ナ
ユニ フォーム
オ レ
S y
肉 体
S M
法 学
警 備
三 十
襲 撃
け っ
す っきり
美 形
幹 部
ニ キビ
松 山
トル コ
ナン パ
保 守
通 る
階 段
図 る
ギリ シャ
出会 える
ボー ナス
開 放
週 末
マ ニ
ワ キ
掛 ける
ロ ジー
世 の中
北 欧
亡く なっ
激 しく
付 く
呼 称
青 山
起 動
親 子
負 傷
舞 い
入 団
東 西
ヴァ ル
デ バイス
見 かけ
勢 い
洗 浄
ネ ン
時 々
ア レク
高 価
バ スト
レン ス
銀 河
お 腹
L a
同 意
水 分
バラエ ティ
S K
P ER
ノ ール
こん にち
脱 出
石 油
フィ ギュ
過ご す
味わ い
新 しく
th er
195 3
夕 方
多 摩
テ ージ
スタ ル
西 武
ゆ み
思 考
ポリエ ステル
税 込
太 田
中 島
ル ダー
ロ ケット
奴 隷
ひび 割れ
同 僚
D L
ノ ウ
ul t
ぼ く
実 業
Pl ay
エ ラ
高 める
ライ センス
キャ プ
混 乱
古 典
ータ ル
際 し
古 墳
戦 国
酒 屋
it ion
絵 画
電 波
月 刊
経 緯
堪 能
境 界
ニ ール
南 西
標 高
ニッ ポン
婦 人
地 帯
ic ro
軽 い
ぎ り
リー マン
P E
ow er
実 装
市 販
読 売
ノ ース
で あい
メ イト
故 障
シナ リオ
統 治
予 め
会 見
LO VE
繋 がり
プロ グラ
歴 代
並 み
アカ ウント
争 い
19 30
入 ら
バ ナ
t on
アイル ランド
頭 皮
水 平
開 校
小 倉
at ch
ば ら
ピー ター
クリー ニング
劇 団
失 わ
ak e
訪 れる
正 体
し め
な さい
補 修
アン ケート
称 し
ルト ン
ボ トル
関 数
弁 当
う れ
成 り
敗 北
著 書
選 定
権 力
手 入れ
発 明
耐 久
つなが る
チ ア
ド ール
re e
キャン パス
195 1
返 り
タ オル
定 める
ボ ラン
モ リ
P A
ロ イヤ
スチ ール
遠 く
ズ ル
ジ ング
10 1
竣 工
サー チ
ド リーム
面 目
早 め
常 識
カテゴ リ
高 田
リュー ション
わ が
エジ プト
複 合
ウォ ッチ
Y A
TOK YO
ゲ イ
フィギュ ア
シ ール
194 2
ヨ ガ
V A
取り 寄せ
減 っ
生 え
抜 い
支 給
濡 れ
生 息
ホル モン
類 似
ヤマ ト
五 十
被 災
春 日
リ ボン
マ ト
地 獄
団 地
水 素
L ove
V R
招 待
F X
構 想
バー ン
ラン ト
私 立
な れる
ナ メント
東 急
カップ ル
オペ ラ
在 住
撮 っ
定 着
上 り
ド ・
屋 敷
修 道
若 手
教 員
活 かし
年 末
前 身
入 門
告 白
194 6
佐 々木
ムー ビー
す り
マ ウス
評 論
さ る
冒 頭
示 さ
詳 しい
借 入
マイ ク
結 論
倒 し
除 い
顧 問
抱 い
北 西
マン コ
スム ーズ
モ ス
前 田
i um
トレ ード
スケ ート
モ テ
体 力
植 民
外 れ
出 品
行 なっ
ウィ ル
選 抜
ー ー
M an
気 象
つ れ
橋 本
静 か
細 かい
辞 典
ファイ ナル
ポルト ガル
デ ーション
到 達
思い 出し
殺 さ
3 50
上手 く
再 建
高 松
シャ レ
キ ック
オ ケ
プロダ クション
ガ リー
ベル リン
ヴィ ル
デ スク
工 具
テ ック
王 者
欲 求
住 み
開 く
ニ ム
ジェ ーム
ご う
心 臓
3 60
調 節
19 20
a ir
ウェ ディング
相 性
臨 床
全 般
正 月
d u
T ER
調 子
交 代
イル ド
強 調
気づ い
つなが り
爆 乳
カ ツ
ol og
凄 い
液 晶
終 盤
喜 ん
タン パク
C op
樹 脂
略 称
立ち 上げ
内 蔵
終 点
フ ルーツ
C ar
こ なし
本 屋
ス ロ
モ ル
有 限
守 備
マ ド
駆 除
軍 団
ジャ イ
放 映
付き 合い
シャ ワー
鑑 定
セク シー
手伝 い
集 落
ロ バート
まく っ
シ リア
in a
気 候
ab le
予 告
持 て
比 率
美 し
援 助
届 い
同 人
岡 田
当 たっ
B I
軍 人
広 がる
両 者
^ )
夫 人
チ オ
明る く
早 稲田
ミュージ シャン
正 面
クリ エイ
政 党
真 面目
ネ シア
様 式
ボラン ティア
圧 力
起 点
除 き
国 土
音 源
全 米
ブ ース
狙 っ
平 方
神 話
g l
教 科
観 点
ゼ ルス
な め
ad e
た つ
散 歩
史 上
J A
マ ニュ
藩 主
無 かっ
ライ オン
増 大
切 ら
広 がり
- (
e ar
対 決
優 しく
須 賀
新 田
H A
ミ ラ
市 内
五 郎
半 ば
行 事
仕 上がり
財 務
カ プ
才 能
給 与
守 っ
っと り
マジ ック
閉 じ
ギ ア
角 川
U M
バ リー
アイ ランド
学 術
加 速
O M
か き
役 員
文 明
ティ ス
武 田
イスラ エル
ス ロー
長 谷
Q u
un d
迷 っ
こんにち は
責 め
エン ス
持 続
し ゅ
議 長
トレ ンド
中 世
並 ぶ
関 与
切り 替え
イケ メン
修 了
聴 い
演 じる
T I
ap p
の ぼ
成 田
M usic
推 薦
洋 服
融 合
ア ーム
n ew
車 種
ショ ルダー
下 車
コミ ックス
法 則
口 座
ワシ ントン
幼 い
シ オ
記 さ
本 店
基 盤
h y
調 教
大 宮
キ ム
さ せる
s on
通 行
スト ップ
満 載
勃 起
ね ぇ
ソ ール
新 鮮
遅 く
セン サー
歌 う
属 し
コ ウ
東 経
大 橋
死 後
概 要
動 く
他 社
サプリ メント
み つ
an ce
じ ゅ
番 地
再 会
時 刻
帰 る
見 直し
北 東
塗 料
ア フィ
ナル ド
違 法
根 拠
一 環
騎 乗
下 ろし
装 飾
難 しく
名 付け
博 多
忙 しい
起こ り
交 響
ジェ ネ
マイ ナス
掲 げ
露 出
村 上
狭 い
テナ ンス
抑 制
O n
焼 け
アレル ギー
f rom
ショ ウ
ホイ ール
ラグ ビー
指 し
直 線
フォ ーク
ポケ モン
近 隣
水 道
西 洋
幼 少
濃 い
前 期
ロ イ
発 着
犠 牲
ベン チャー
u x
っ ぱ
頂 く
イン ナー
運 ぶ
レ オン
er t
運 び
山 崎
大 野
本 拠
公 認
国 境
夜 間
簡 易
r am
リュ ーム
ロイヤ ル
偶 然
取り 扱い
不可 欠
居 酒屋
N G
ツ ァ
はじ めて
V S
暗 殺
社 内
スポン サー
リ フ
頂 け
敏 感
同 梱
直 径
国 王
l a
ク ルー
増 やし
厳 選
ま くり
オ シャレ
ミ ステ
カスタ ム
自 主
黄 金
O F
部 位
キ ル
薄 い
上 級
トー ナメント
ヤ ング
テ ール
ア ピール
シン ガ
v e
ト ウ
歩 兵
キー ボード
ファンタ ジー
最 多
と こ
継 ぎ
バスケット ボール
O D
戻 す
24 0
発 動
P RO
来 店
窓 口
メン テナンス
関 わっ
立 てる
必 殺
行 方
ow n
知り 合い
サー バ
併 設
W orld
手 帳
構 え
シ フト
交 際
最 中
リ ノ
帽 子
ぼ う
キャ ッシュ
都 内
冷 蔵
犯 人
ユー ロ
手 作り
エ クス
学 年
Com p
酸 素
カウンセ リング
美 しく
ス ニー
リラ ックス
erv ed
踊 り
申 込
ふ く
作 中
大 島
池 袋
入 場
アル ファ
優 良
わ たり
離 脱
ロ リ
eb ook
単 語
爆 弾
回 路
w eb
ド クター
モ スク
有 機
j ect
真 剣
最 小
リ サイクル
も も
S ch
お 前
( ^
花 嫁
併 せ
ボ ート
ヤ ード
附 属
オ ム
侵 攻
ジ メント
諦 め
揃 っ
無 人
作 画
三 角
スト レート
ジュ エリー
指 輪
シ ネ
シロ アリ
カ 月
ロング ヘア
アナ ログ
な じみ
ボ リューム
贈 り
魔 女
ポ ーズ
ベ ス
彩 度
審 議
遊 ん
ミ ナ
一 家
エ ージェ
美 子
ウ ー
スニー カー
除 去
参 議
カン パ
困 る
幅 広く
奪 わ
スコ ア
周 波
アフィ リエ
宝 石
安 値
移 管
ロ サン
給 料
要 する
何 故
倒 れ
し り
移 り
リ ップ
座 席
ず る
島 根
同 級
ダイ ナ
装 甲
戦 艦
ツ イン
総 理
短 編
食 器
来 年
ed ia
ro w
囲 ま
さ か
本 書
外 観
N N
ゆ り
直 送
造 り
認 可
タ ス
マ レー
北 陸
19 39
ア ナル
マネ ジメント
驚 く
守 護
返 っ
ヒ ント
晴 れ
主 流
キ ア
カラ オケ
養 成
カ トリック
推 奨
受 注
学 者
ir l
抱 き
ア ッ
スケ ジュール
ドラ ッグ
仕 掛け
浜 松
英 雄
ド ット
駆 動
改 名
楽 団
マ リオ
ッ セル
通 学
総 務
服 装
ピ ク
土 日
決 まり
高 原
せっ かく
倉 庫
本 棚
楽 部
報 じ
離 島
か み
工 作
10 5
選 べる
F R
ラ ップ
なく なり
c ol
小 児
殆 ど
コ ト
南 東
上 品
追 求
フェ スティ
代 行
12 5
yr ight
入 居
負 っ
言 及
ウ エ
扱 わ
知ら せ
逆 転
ア サ
おも ちゃ
抑 える
休 憩
店 内
な ー
後 悔
異 性
U L
著 名
人 員
施 し
ヌ ス
遣 い
浸 透
ア リス
完 璧
変 形
小 売
ent s
セレ クト
贅 沢
ゆ ったり
永 遠
録 画
プラット フォーム
人 事
つ ま
歴 任
例 外
ロサン ゼルス
チャ イ
綾 瀬
末 期
ター ゲット
改 め
表 し
_ _
at h
ホール ディング
泣 き
でし ょ
味 方
聖 書
癒 し
重 い
倶 楽部
操 縦
日 産
ou s
平 野
バ ット
飽 き
R ights
品 種
現 行
生 かし
クリー ト
Cop yright
之 助
読 書
緩 和
ば い
双 方
v i
外 見
as on
つ くる
ぐ ら
植 え
オーディ オ
盛 ん
コー デ
早 期
柔 道
ヤリ マン
D is
体 系
まつ り
欠 かせ
ッ パ
re am
オー ガ
あ あ
AL L
マネ ー
三 井
シンガ ポール
認 める
ノ ス
適 合
飼 い
セ ッション
西 側
U B
蒸 気
親 友
膨 大
グ レイ
今 週
大 い
率 い
クト ル
合 せ
タ ダ
監 修
上 陸
ミ ズ
痛 い
防 災
- )
オ シ
アシ スタント
合 唱
ベン チ
業 績
怪 我
ロ イド
I L
済 む
球 場
受 講
が れ
耐 え
ハンド ル
メ トロ
O ff
レ る
ボ ウ
崩 れ
ジ ラ
三 浦
護 衛
ワ ル
愛 用
d es
後 方
妖 怪
l l
体 内
or g
19 37
ク ッション
い ら
気 味
寸 法
邪 魔
去 っ
主 力
検 出
来 日
文 献
宇 都
たっ た
目 覚
落ち る
ウ マ
T P
ク ソン
届 く
小 川
メ ット
集 まり
急 速
森 林
ふ たり
平 安
ミュージ カル
ソ ビ
ひ ら
逃 し
運 賃
色 彩
キャ バ
特 化
ッキ リ
けっ こう
店 員
原 料
拘 束
アフィリエ イト
中 川
G L
スター ズ
発 掘
神 宮
ヘン リー
過ぎ る
近 畿
将 棋
令 和
宝 塚
含 ん
レコー ディング
クル マ
五 輪
om e
反 乱
フェスティ バル
トップ ス
代 替
y ou
コン クリート
直 す
パーソナ リティ
X L
マネ ージャー
講 義
ht ml
リ ッチ
この 頃
ライ ズ
M AN
パナ ソニック
S R
身 近
Res erved
男 の子
19 36
合 戦
妄 想
排 除
疑 い
ヌ ー
が し
正 義
起き る
カ メ
天 才
デ メリット
止 める
f er
ビ ーム
Y K
ヤ ク
オーディ ション
一 貫
ふ た
コーディネ ート
市 川
iP ad
花 火
宇都 宮
所 持
レン チ
す っかり
コン テスト
ブラウ ザ
継 が
賠 償
生 理
発 音
収 益
メガ ネ
ロー ラ
推 測
傘 下
履 歴
こ ども
変 態
売 ら
A BC
スト ロ
立 体
伸 ばし
品 番
実 態
リ ッジ
田 村
避 ける
へ ん
河 内
アロ マ
短 縮
つ くり
ラ マ
** **
イエ ス
養 子
ま くる
勤 め
有 利
違 え
d o
カ ミ
al e
眺 め
上 場
並 べ
N TT
ム ーン
レー ン
パ ッド
ダ ント
土 産
乳 首
れ ん
初 頭
有 力
ブリ ッジ
an s
フェ リー
上 限
正 しく
AK B
ご はん
鑑 賞
st em
デ ニム
調 達
ハン ガリー
ホールディング ス
18 89
死 ぬ
ac ebook
祝 日
勇 気
C G
辞 め
サン タ
クライ ナ
f t
ミ ア
ロ マン
立 地
坂 本
コマ ンド
体 操
北 九州
論 理
引 い
狙 い
� �
乙 女
if e
開 店
振 動
入 会
沿 岸
さい たま
コン セント
ハン ター
le t
ネック レス
レ クト
チャ ット
わざ わざ
出 店
日 程
深 刻
r es
助 手
決 断
一 連
青 い
伯 爵
W OR
ア ジ
ブラ シ
利 き
秘 書
インド ネシア
ヴィ ー
日 立
ER O
抽 選
頭 部
家 事
ッ シャー
イ ノ
サ ッ
冷 凍
is e
車 内
舐 め
戦 っ
広 報
一 員
ア ール
アン テナ
リ チャ
曰 く
水 戸
函 館
工 程
A F
リ ハ
ミル ク
廃 棄
医 院
住 居
駅 舎
回 線
クリ スタル
表 彰
密 着
根 本
座 っ
ar a
集 める
代 謝
一 旦
今 月
じ い
G u
落ち 着
現 存
A ir
社 名
じ っくり
ベル ギー
ラ フ
着 る
セ ロ
がっ こう
ウ クライナ
スピー カー
全 域
こ い
l es
パイ プ
共 著
タ ッグ
敗 退
く っ
技 法
イス ラム
くだ さっ
遂 げ
補 給
並 行
昼 間
ッタ リ
創 刊
r ay
リー フ
田 舎
W e
太 子
免 疫
チョコ レート
修 行
かわ い
小 松
m a
債 権
包 装
フレ ッシュ
ド ッグ
昇 進
見 解
19 38
ur a
ア ブ
払 っ
App le
相 模
係 る
デ レ
コ スメ
下 着
興 行
科 目
飛 ば
汚 染
奇 跡
せ よ
幼 児
P art
ル ン
育 っ
間 違っ
幸 い
ル イス
絵 本
タ ント
甲 子
テクノ ロジー
微 妙
寿 司
カ ンド
電 機
故 郷
実 況
す じ
聞こ え
た また
記 し
正 解
ah oo
欧 米
寝 具
アンティ ーク
質 量
知 名
習 得
先 頭
半 身
だら け
稼 働
フォ ース
O p
Q U
マニュ アル
叩 き
さ き
分 岐
天 王
伴 っ
k e
タ ニ
説 得
純 粋
精 度
ポ スター
短 く
キロ メートル
寄 っ
ファイ ター
濃 度
マ リン
発 症
o ol
観 音
て い
貼 り
校 長
プロ モーション
意 匠
ラ ジ
近 鉄
プラ ザ
it h
av e
飼 育
移 植
放 っ
充 分
M icro
施 さ
日 光
ピ スト
フラ ット
なき ゃ
引き 出し
シ スコ
出 資
ソビ エト
余 り
S m
デ ・
デ ラ
捉 え
キュ ア
クライ アント
も はや
純 正
自 慢
ゲ ージ
接 し
突 入
オ オ
タ ム
ライン ナップ
黒 髪
ら え
阪 急
高 山
や き
レン ジャー
強 度
海 洋
排 出
社 団
なる べく
明 度
少 数
は め
後 者
笑 っ
ノウ ハウ
7 50
寿 命
究 極
ヒ ップ
. ,
d r
珍 しく
ソ リューション
個 々
授 与
ラ ポ
G re
努 め
マ ナー
上 田
絞 り
飢 え
う ん
J O
総 額
バイ パス
シル エット
経 路
懸 念
吉 野
動 い
ブ レス
い ざ
及 ぶ
反 射
* )
く ま
華 やか
カロ リー
n o
ニコ ニコ
救 急
ど き
oo t
クイ ーン
在 学
替 える
遭 遇
開 拓
フォ ロー
オーク ション
整 え
スティ ック
スト ック
次 男
混 ぜ
ス ズ
じ ゅう
警 視
発 注
占 める
わ たる
寄 付
寒 い
文 部
17 0
踏 まえ
み ず
接 近
山 下
矯 正
愛 さ
ヤ レる
工 房
L P
体 質
お と
き ら
原 画
スイ ーツ
ヴォ ー
一 言
引 く
セル フ
プレミ ア
つなが っ
遠 征
ペ イ
中 期
ベ ラ
思 える
H S
ス ノー
ウォ ール
残 す
醤 油
s y
過 剰
知 的
ビ アン
見つ かり
c he
m y
打 撃
1 200
一 瞬
l ine
人 権
公 務
空 中
ダ ス
メ ソ
読 め
ic t
困 り
シュ ート
R ec
ロ ケ
東 芝
コット ン
総 会
起 源
ジェーム ズ
い ける
サ プライ
ik e
活 発
マイ ナー
at t
併 用
地 理
火 山
ヘ ルス
添 加
E U
デ カ
柔 軟
打 っ
抗 議
アップ デート
尋 常
m o
買 わ
株 主
サン ダー
M o
ギャ ラリー
インター ナショナル
d ay
スペ ル
修 復
le ct
薄 く
E M
w ay
粒 子
遠 い
とく に
集 まる
後 輩
子 孫
ウィ ーン
語 ら
がん ば
帰 還
主 役
悩 む
まい り
張 る
こ り
未 だ
19 35
J oh
プラ グ
G o
収 穫
たと え
ミ ット
岡 崎
劇 中
フィ ニ
ラ ッシュ
ストレ ッチ
バイ ザー
米 軍
日 経
it t
雨 漏
彫 刻
S er
オー ケ
良 好
行 こう
プログラ ミング
参 り
豊 田
リ ティー
ユニ バー
分 散
い よい
いよい よ
4 50
閉 店
小 屋
匂 い
規 約
厳 しく
味 噌
なく なる
称 さ
聖 堂
特 長
メン タリー
ガ ム
D X
プラス チック
ア キ
カ ッコ
ヒ ダ
撤 去
旅 館
済 ま
記 号
19 33
屋 外
改 札
イ キ
コ ーン
ピ ッタリ
本 質
意 義
ギリ シア
モン ゴル
スタ ンス
女 神
恵 まれ
溢 れる
知 人
雨漏 り
19 34
加 わっ
安 価
n a
DI Y
北 側
ウ レ
独 占
辛 い
ふ う
J P
品 川
L S
載 せ
数 十
夏 休み
き ん
便 秘
ボ ーン
もたら し
庭 園
条 例
ア パ
損 失
エ ッ
国 連
出 典
少 々
痩 せ
あ さ
搭 乗
外 側
糖 尿
有 無
; )
持ち 主
巻き 込ま
排 水
見 合い
し き
タ カ
相 対
前 方
ト マト
二 郎
初 日
ide o
発 想
ID E
ス ワ
パー カー
フィリ ップ
混 合
バ リエ
F U
集 会
I t
伊 豆
永 久
経 っ
縫 製
血 管
戦 線
去 年
ファ ル
ま け
l and
R o
数 百
B U
運 輸
h a
計 測
放 つ
砂 糖
N e
の ん
本 番
証 言
渡 る
密 度
快 速
G U
イ ヤー
原 理
続 編
望 む
ユー ザ
織 田
但 し
適 正
出 走
食 堂
ム ダ
サン ダル
エ ーション
帰 宅
シ ミュ
s oft
ドラ フト
主 導
野 村
AT ION
う どん
脱 退
み や
適 応
ホン ダ
育 児
穏 やか
リチャ ード
移 民
内 装
縮 小
ス ライド
タバ コ
i y
水 産
ボク シング
批 評
ク タ
覚 悟
フィル ター
作 れ
勝 っ
さ し
後 藤
ライ ス
数 え
B GM
白 色
増 やす
売り 上げ
ぐる み
ち り
まさ か
テ ラ
デン マーク
参 入
節 約
め ちゃ
お じ
は い
す け
ボ ルト
G S
石 井
伝 わる
頻 度
無 効
ヴィ トン
跡 地
シカ ゴ
リ クエスト
熱 い
返 信
疲 労
河 原
損 傷
暑 い
ナ リスト
外 出
単 なる
狙 う
一 応
un g
配 達
ステ ークス
試 作
19 28
戦 死
イン ク
ホル ダー
19 32
落と す
ナ レーション
飛 ん
ウ イ
暮 らす
梱 包
オフィ シャル
ud io
P er
2 20
果 た
落 語
懸 命
1 12
ベ ア
被 告
サ スペ
警 戒
フラン シスコ
仲 介
イ ラン
分 間
抽 出
同 等
に ゃ
果 実
c k
各 社
あえ て
ふ ん
ド メイン
ニ オン
劣 化
コラボ レーション
ST ER
琉 球
適 当
サラ リーマン
川 島
馬 場
対 面
ペー パー
シ ウム
及 ぼ
右 衛門
推 移
トラン プ
極 端
手 がけ
百 貨
セ カンド
M AR
付 か
もたら す
O ne
組 立
保 安
19 29
一 見
行 なわ
マ カ
区 画
要 件
C B
かっ こ
会 津
fe at
せ よう
10 8
T B
目 立つ
薄 毛
多 彩
染 め
CP U
cm ×
福 山
紛 争
署 名
展 望
ぶ ら
金 銭
ウィ ーク
利 点
圧 縮
モスク ワ
ワク チン
安 打
a e
CO M
甲 斐
申 告
モー ニング
代 わっ
権 限
青 木
u al
フレー ズ
シ アン
死 刑
介 し
カンパ ニー
紫 外
待 つ
ポン プ
手 続
梅 田
バ ター
イ イ
代 引き
海 賊
線 路
申し 訳
ar i
吸 い
庁 舎
ネイ ビー
A b
暴 走
p ort
景 色
絶 え
S ON
素 直
P I
カ レッジ
留 め
er n
見つ から
抜 く
ヘ ビー
記 入
ぶ つ
騒 動
マッチ ング
下 がっ
コー ポ
ピ ストン
パン チ
果 て
地 形
検 定
の 毛
ネ ズ
St ation
東 宝
近 郊
オーケ ストラ
大い に
神 田
予 報
チャ ールズ
固 有
げ ん
シ マ
リハ ビリ
ウェ スト
デリ ヘル
グ ー
2 10
高 まっ
上 演
賃 金
整 形
L AN
エレ ベ
ファ ス
決 戦
ト ーン
D D
中 日
東 側
サ マー
リ ウス
も て
バリエ ーション
ガ ニ
自 覚
エ ビ
ア テ
休 暇
ファン デーション
エ ネ
チン ポ
炭 素
手 順
クラ フト
19 31
ベ ージュ
フェ ス
M F
存 知
イン パクト
フット ボール
J K
在 宅
恥 ずか
い こう
━━ ━━
p ic
立ち 読み
支 える
ス ミス
マ ウント
差 異
郊 外
眼 鏡
一 面
稼 ぎ
シン ガー
っ 子
ワーク ス
b o
コ キ
固 め
残 業
髪 の毛
下 旬
アー カイ
コ ラム
F acebook
通 い
格 好
ピ カ
リュ ック
ふ わ
入 浴
AC E
織 り
オ リー
伝 わっ
次 ぐ
カ ントリー
当 局
贈り 物
ロー プ
い じめ
動 向
目 撃
- 』
四 郎
取り 組む
模 型
驚 い
ノ コ
法 的
歩 行
ゼ ット
フラ ッシュ
わ さ
ガ ソ
体 型
っ そり
近 藤
野 田
P ar
監 査
東 方
放 出
バレ エ
協 同
グラ ウンド
案 件
G e
ミ ツ
スコット ランド
フェ クト
バレー ボール
M R
誤 解
つい で
間 隔
プレゼ ン
時 給
エ ナ
北 条
Pr ess
干 し
リモ コン
後 日
お もし
馴染 み
エ ント
調べ る
多 分
信 長
取 れる
伊 達
ドル フ
渡 す
壊 れ
れ い
ブル ース
ハイ ブリ
清 潔
山 脈
爆 撃
ラン ニング
か しい
合 理
早 速
N I
阿 部
木 造
分 裂
喫 茶
ワ ゴン
阻 止
補 償
ミ ドル
液 体
前 線
称 号
容 姿
an a
必 見
] 【
フィン ランド
す ば
re f
おもし ろ
暗 号
エンタ テインメント
つ る
レ ズ
洒 落
そろ そろ
コン クール
飲 料
触 れる
マス コミ
分 泌
NE W
あら すじ
F T
無 限
リ ッシュ
ブリ ック
AR D
わ ん
ナ チ
or n
ブレイ ク
コ チラ
コ メディ
大 隊
シ ド
ド ック
モ チ
北 米
文 句
ガソ リン
仲 良く
広 域
選 べ
風 味
カ レンダー
ニ ョ
L in
マ キ
ピ ーク
こ っち
川 口
巡 り
サラ ダ
南 海
k a
愛 する
手 掛け
諏 訪
混 雑
ストラ ップ
伝 承
アミ ノ
アマ チュア
トゥ ー
モ ト
ート ン
大 塚
望 ん
長谷 川
不 詳
当 地
SI M
バッ ハ
セ ラー
B ar
ョ ウ
前 面
国 勢
S ec
19 23
ヘ イ
死 者
必 死
追 放
の こ
冷 え
ドキュ メンタリー
歌 唱
V i
ク オリ
y o
エ キ
戦 力
N Y
ワーク ショップ
南 側
リス ナー
怪 獣
革 新
し む
容 器
跳 ね
ソー プ
磨 き
返 還
ホ ッ
放 棄
直 通
ク レイ
法 令
失 点
ジェ ン
歌 舞
謝 罪
大 西
だい たい
19 27
ム ラ
玩 具
製 薬
支払 う
ディー ゼル
風 邪
包 茎
19 24
ラ ッピング
セール ス
ます ます
b it
an c
歌 い
題 材
HT ML
商 人
特 有
av a
m on
す ず
re t
立 川
示 唆
セ フ
本 町
片 付け
at er
発 覚
詩 人
アイ コン
ワキ ガ
Y ahoo
減 らす
タ ナ
カラ ダ
ス プリング
先 週
即 位
情 熱
射 精
編 み
非 難
バ シー
定 員
紅 葉
キャプ テン
み ち
手 元
起 業
at or
漏 れ
下 位
参 謀
音 響
B D
小 山
4 000
下 し
天 神
P M
三 島
ない し
づ らい
藤 田
最 短
接 する
付 与
倒 す
農 家
継 ぐ
渡 さ
慎 重
オ マ
辺 り
先 進
暖 房
19 00
シュタ イン
リ ヒ
レ モン
イ ェ
人 格
遅 い
領 土
G G
アン ス
ul l
ち ゅう
ほん と
同 行
プラ チナ
ニ ックス
19 26
= "
不 能
行 列
落 下
陥 っ
ファ イン
ト ロン
射 撃
ボ イス
で ん
ふ と
破 り
ま とも
FI FA
こ く
オ ト
選 考
19 25
生 存
買 える
c ont
た ぶん
強 烈
横 断
自 立
アル ゼン
エリ ザ
たまた ま
IS O
便 器
討 ち
リ ト
パ レ
が た
溢 れ
わ い
外 務
グラ ビア
開 示
手 前
M US
血 圧
中 断
申 込み
架 空
バ リア
誇 り
満 た
マ サ
ジョ イ
方 言
大 将
ri st
載 っ
カジ ノ
専 業
r on
カ ウント
ライ ブラ
レ トロ
検 察
w h
全 力
診 察
遠 藤
市 営
うれ しい
ね ん
` )
ミネ ラル
曖 昧
魔 王
再 編
イ ラク
RE D
アルゼン チン
復 讐
加 える
還 元
いらっしゃ る
性 的
店 長
賞 金
ボ ストン
く じ
ナ ース
ワイ ヤ
タ クト
乗 客
飾 っ
書 士
蓄 積
利 息
AT M
迅 速
時 効
ハイブリ ッド
高 野
プライ バシー
リ サーチ
大 津
理 念
こだ わっ
は ら
ビ キ
G l
浦 和
ポ ンド
ヒ ール
リ ブ
封 印
担 う
大 谷
婚 約
NE T
別 名
チョ ウ
審 判
添 え
In st
お ば
消 す
講 習
工 芸
職 種
ダ ラ
X X
ね え
都 心
技 能
ワ ール
長 女
メン タル
さ く
- 」
パー セント
電 圧
運 ん
シ ーク
ケー タイ
シリ コン
移 し
触 り
J U
r d
文 芸
今 夜
コロ ナ
凄 く
そ っくり
千代 田
山 頂
お まけ
食 料
コ ラー
I s
グ ッド
辞 任
喧 嘩
関 わり
k i
Un ivers
in o
違 和
退 治
10 2
連 覇
出 口
届 き
n ational
佐 野
N P
歌舞 伎
銘 柄
ス ッキリ
T M
ニュ ージー
of f
効 く
斎 藤
ビ ート
掘 り
10 3
AN A
ニュージー ランド
告 知
エ ラー
細 かく
稼 ぐ
コロン ビア
モ ント
BL UE
横 須賀
だ ろ
日 野
ウレ タン
生み 出し
福 田
ig h
16 00
ナイ ロン
U V
連 動
あき ら
リ ム
パ ワ
ソ リ
天 候
召 喚
据 え
TO P
10 4
破 損
エージェ ント
ザ ーズ
ギ ル
駆 使
車 線
遊 ぶ
書き 込み
あ て
朝 食
満 たす
D NA
動 かし
シ グ
姫 路
め い
愛 情
百 合
誘 惑
山 陽
実 務
提 唱
武 将
ナ ミ
極 め
繰り 返す
シ ード
人 種
告 げ
アイ アン
着 け
当 主
コー ラス
大 勢
洗 顔
見つ かっ
配 備
ド ミ
客 室
打ち 上げ
暗 い
C ont
夫 妻
N et
St e
完 結
国 防
ウ ラ
荒 れ
だ れ
繁 殖
秀 吉
々 しい
中 高
18 00
ド コモ
it a
空 い
藤 井
追 っ
N C
美 肌
g en
あ や
ヴォ ル
国 籍
住 友
大 地
葬 儀
ポ リス
ピア ス
東 海道
好 意
頂 ける
同 名
貸 本
順 番
ピ ット
テキ サス
一 層
ジュ ース
遺 体
E l
ing s
挙 げる
飯 田
保 つ
意 欲
が わ
ニ オイ
G RE
功 績
リ バ
11 5
コ フ
A s
モ ニー
細 菌
出 馬
Joh n
ト リート
ツ ン
サ ング
oc i
吉 川
UN D
海 水
美 白
色 んな
返 さ
最 悪
官 僚
祖 母
le y
レー ダー
IC E
置き 換え
動 かす
四 十
税 金
ひど い
ar ch
浅 草
H C
え ん
祈 り
ER S
p x
テ ラン
同 月
石 原
備 考
画 質
n er
輝 く
レ フ
イン フル
D ay
那 覇
打 率
お は
存 続
親 王
ズ リ
大 体
松 田
ッセ イ
ター ボ
立 派
大 気
アリー ナ
カー ペット
シ ニア
納 期
リー ナ
議 席
面白 く
こ ま
am a
小 泉
ら さ
ボ イ
世 田
身 分
セレ ブ
押 さえ
金 庫
ロ フ
s ch
タ イル
負 荷
ひ た
緑 色
高 値
d i
ドロ ップ
症 候
教 える
誘 い
魔 術
貴 方
ヴェ ン
ラ ベル
意 向
ag ram
コラー ゲン
TO UR
め ざ
な つ
の び
速 報
和 風
ピ ラ
白 石
満 ち
アウト レット
新 書
ク マ
付き 合っ
レイ プ
メ リ
T C
シ ワ
大 名
経 歴
法 務
地 面
か から
13 5
ソー シャル
着 手
維 新
n ot
松 井
ク チ
役 者
当 事
総 称
処 刑
EN T
極 上
しゃ べ
点 検
正 当
シネ マ
ビック リ
ホ スト
プレー ヤー
買 え
副 業
メロ ディ
19 22
鹿 島
a a
宮 殿
戦 前
分 ける
er e
スケ ール
許 し
株 価
戦 場
ミステ リー
建 立
聴 き
19 19
一 杯
じ っ
T o
シャ フト
目 黒
熱 心
入 賞
ど っ
19 0
テ ラス
プラン ト
焦 点
ユニバー サル
び り
R PG
特 技
行 使
排 気
nb sp
反 省
エン ザ
デ コ
i el
プリン セス
足 利
大 佐
端 子
重 大
の ぞ
開 館
19 18
食 物
ボ トム
業 種
00 00
ス レ
寝 る
威 力
流 出
ビ ジュアル
石 田
ペン ダント
補 正
性 別
清 掃
re d
コ リ
ハイ ム
担 っ
す い
ハー ブ
コ ック
国 有
ライ ヴ
木 材
く わ
天 国
小 麦
恐 ろ
ド ナルド
商 標
返 金
おっ しゃ
冷 静
う ら
乗り 換え
テ ント
T D
快 楽
シェ イ
八 王子
f r
ありが たい
原 題
専 属
救 助
BE ST
山 中
アップ ル
インター チェンジ
ア ソ
派 生
半 数
じ り
サ ウス
V O
接 客
ヴィ ッド
ut e
上 流
マー シャル
C an
進 歩
広 げる
ズ マ
従 い
毛 穴
会 談
幸 福
オブ ジェクト
ペ ラ
実 物
上 回る
交 付
知り 合っ
ね ー
ナ ッツ
個 室
浴 室
湘 南
す き
ライ ナー
意 志
失 い
クト リー
なら び
ト ータル
ハロ ウィン
国 外
岩 波
in s
え もん
潜 在
典 型
び と
原 産
ファ イト
中 隊
ディ ン
重 複
スカ ウト
明 石
A E
b ox
C ON
エレベ ーター
カ ク
難 易
ボ ブ
コンピュー ター
結 晶
C r
動 員
良 し
脅 威
パウ ダー
こ ち
カ バン
色 合い
狩 り
キ ッド
向 こう
気づ き
エロ い
世田 谷
新 潮
ソ ウ
A t
スク エア
ウォ ル
地 中
経 費
漬 け
黒 人
h i
R C
ス ピン
リ バー
まん こ
移 っ
勘 違い
昨 今
古 川
一 目
ザ ード
ナ ブル
乱 れ
ツ ル
救 出
ロー ラー
モン テ
ot t
や む
N PO
台 車
ST AR
間 違え
こ なす
IS S
ふ れる
僅 か
カ ウ
ージ ョン
連 勝
動 か
通 話
航 海
2 30
単 価
真 理
合 体
早 朝
日 頃
グロー ブ
デイ リー
カ ッ
減 らし
取り 揃え
主 任
かし ら
in ter
覚 醒
天 正
襲 わ
ふる さと
出 勤
家 臣
全 線
高 まり
ハ ナ
ノル ウェー
し の
町 田
pr es
W H
軍 隊
繊 細
q ue
リ フト
図 っ
コンサル タント
自 作
羽 田
学 問
リ ク
リ トル
教 材
知 恵
ウィ ンド
限 っ
意 気
m p
延 期
デ ッド
プロ ト
組み 立て
じゃ ん
ツ リー
M T
上 京
ブ リー
コイル マットレス
トー マス
ユニ ーク
l o
集 英
J I
F ran
ベ テラン
L ine
ど っち
い ん
トリート メント
抱 える
原 田
賛 成
繋 がっ
負 い
アウ ター
余 計
アクセ ント
一 帯
タ ケ
書 記
ジャー ナリスト
戦 時
要 塞
大 衆
包 囲
ブ ロー
カ ビ
単 品
抜 ける
視 野
M ON
限 度
待 機
視 覚
県 内
家 康
近 江
単 体
フェ ンス
下 取り
Ar t
あ んな
S W
久 々
破 っ
箱 根
策 定
F OR
為 替
カー ボン
ヨ シ
戦 術
ナ ック
過 激
と め
勲 章
いらっしゃ い
リ オン
野 外
n y
隙 間
登 記
19 21
終 戦
i i
暫 定
R ed
本 田
en g
芝 居
Micro soft
赤 色
キュ ート
だ め
改 装
騎 手
だん だん
つく っ
出 雲
松 竹
近づ い
秋 葉
詰 まっ
考 案
奏 者
ハ ロー
ドキ ドキ
C ent
妨 害
ふ り
3 20
満 喫
プレ ックス
スト リー
ポ ロ
D P
確か め
処 置
男 爵
ほん の
王 朝
実 習
事 典
伺 い
勿 論
道 場
et h
修 士
熱 帯
運 航
フ ック
コン タクト
産 地
ザー メン
ri pt
高 崎
復 元
MUS IC
比 例
武 士
ic ation
アーカイ ブ
加 賀
桜 井
コ ネ
ウ リ
相 応
悪 質
パ チンコ
造 船
幻 想
景 気
派 手
届 か
P DF
ス キャン
学 区
大 田
コン テナ
海 峡
媒 体
ギ フ
プリン ス
日 向
レ ックス
oun t
制 覇
民 営
盛 岡
船 橋
アク ア
( ^^
パス ワード
受け 付け
ソ ファー
19 14
中 旬
Z O
ト ート
リ ッ
B K
服 用
貯 金
it ed
砂 漠
R Y
馬 鹿
度 々
ヘ リ
D es
幹 事
築 い
長 岡
日 市
アマ ゾン
in c
景 観
負 う
決 算
es e
警 告
増 強
p art
が き
輝 き
多 々
アン チ
炎 症
u ro
セラ ピスト
エル ン
無 地
アタ ック
外 来
電 球
師 匠
教 皇
シン ボル
決 議
水 中
ティ ッシュ
頼 ん
腰 痛
ダイ レクト
加 減
東 南
だい ぶ
北 方
薬 物
ット ー
武 道
コ メ
柔らか い
w ork
大 輔
水 泳
やさ しい
指 数
レイ アウト
数 量
ミネ ート
ガ リア
買い 取り
ステ ー
ロッ テ
座 標
歌 劇
山 岳
育 てる
サング ラス
め で
台 詞
教 養
メ ッシュ
挟 ん
全 集
起こ さ
間 に
か 所
ず ら
マレー シア
P a
本 木
イン フラ
転 じ
アフ ター
衣 類
ホ ント
W W
in st
本 土
エ イト
マ ザー
カプ セル
ub l
コンサル ティング
サン デー
ナイ フ
辞 書
SU PER
尽く し
買い 取っ
日 米
仕 立て
境 内
匿 名
C V
戸 田
at ed
慶 應
長 袖
累 計
持て 余
両 国
pr ess
y le
儀 式
クリー ン
減 り
し ゅう
美味 しく
鉱 山
・ ア
っぽ く
テイ メント
双 子
少 将
不 在
ov er
トレー ナー
ディー プ
押 す
チェ ル
ピック アップ
ノ ベル
ピ ッチ
P re
入り 口
奉 仕
体 感
み どり
喫 煙
四 季
e k
院 長
RO CK
結 ば
ハリ ウッド
ジ ュー
職 務
, 【
横 山
老 舗
上 質
M on
ム シ
師 範
ザ ・
自 家
開 局
召 し
中 盤
ダー ビー
パ ロ
わ か
登 り
Bl ue
原 稿
義 塾
たま ら
さら なる
a ut
ニ ル
エ ミ
育 ち
こ し
チ リ
大 久保
総 督
ね こ
燃 え
年 上
シミュ レーション
復 旧
構 内
野 生
柴 田
クリ ップ
v ent
源 氏
ユ ナイ
光 学
d is
コ ラ
滑 り
心 がけ
拡 散
目 線
司 教
改 訂
繰り 広げ
シャー プ
仕 え
モ ジュール
だ す
傑 作
行 なう
00 1
j i
逃 亡
M in
W N
一 日
キャ リー
: :
高 木
レス ラー
an o
実 在
X T
転 送
あ ふれる
周 期
り ょう
終 わら
発 酵
船 舶
カー ン
頼 り
そこ そこ
ご み
V OL
喪 失
西 村
公 的
追 跡
西 口
重 宝
共 感
付 加
理 学
追 わ
総 裁
28 0
n g
ユナイ テッド
チェ スター
G en
保 全
夢 中
安 田
願 っ
役 場
三 振
絶 頂
b le
厚 み
タ マ
p o
ダン サー
識 別
頭 痛
19 17
アラ ブ
流 さ
ロ ジ
貰 っ
打 点
細 い
飛 ぶ
一 流
対 照
カート リッジ
J ava
セ リフ
12 8
おか しい
オリ コン
自 称
漢 方
恥ずか しい
F W
払 う
Z E
筆 者
ワ イルド
サイ ク
溶 け
最 寄り
ap h
川 越
ウェ ット
っちゃ り
失 う
借り 入れ
手 配
アド バイザー
A X
順 調
i am
y s
お 洒落
だ ち
行 える
岡 本
牽 引
公 益
薩 摩
給 湯
た どり
両 手
テ ス
完 備
闇 金
や れ
インディ アン
ブラ インド
調 剤
序 盤
19 12
作 れる
チェ コ
く み
入 金
達 する
右 側
互 換
花 粉
笠 原
テン ション
歌 謡
痴 女
携 わっ
秋 冬
19 10
本 件
ア ラン
ran s
土 木
ディー ラー
解 約
制 約
v el
オリー ブ
A G
麻 酔
ベー シック
ぽ っちゃり
ジェ リー
き ゅう
um ent
ダイ ス
注 射
オ カ
前 者
インフル エンザ
ホ ラー
ち なん
名 無し
バ ブル
日 付
ケ ード
組み 合わせる
ライフ スタイル
ザ ク
P an
荒 川
番 手
ナイ キ
プリン タ
り ゅう
U p
ス ロット
年 数
ズ レ
媚 薬
コー ティング
倫 理
ノ ア
ソ ックス
おは よう
松 平
P P
侵 略
着 陸
W ord
救 う
打 者
機 材
バック アップ
順 次
ブ ドウ
ボ リ
逃 れ
墓 地
ンド ル
難 い
パ ティ
ツイ ッター
わ き
題 し
いただけ れ
t b
今 作
フィニ ッシュ
M ag
筆 頭
解 雇
Inter national
10 6
内 田
サラ サラ
シル ク
CO L
お ん
来 場
y n
ク ォ
気 圧
取 付
療 養
中 毒
換 える
フィ ラ
勇 者
後 任
ゆ かり
合 法
持て余 し
バ グ
確 信
デ ント
若 しくは
利 便
招 き
も た
ア ット
ろ く
履 き
iv er
親 切
勃 発
大 山
A GE
通 路
由 紀
電 化
ガ キ
ース ター
IG HT
省 略
評 議
士 官
ノ リ
名 乗る
太 鼓
漁 業
ま か
環 状
ア ディ
オ ラ
配 列
尊 敬
種 別
美 濃
マ ック
貧 困
迷 い
え き
T ok
at o
D o
燃 焼
ビ ニール
敗 戦
Sy stem
商 工
種 目
鮮 やか
つ らい
メ ダ
斜 め
聴 く
敷 き
Te ch
イー スト
mm ×
馬 力
シ ブ
海 老
空 母
B F
ま き
F r
カップ リング
アレク サンド
名 作
エド ワード
出 せる
覆 わ
C F
喜 ば
断 り
ナ ・
ミュ ン
ミ ュー
コン ディ
D M
ア ース
青 色
水 上
交 え
牧 場
寄 与
早 川
枚 数
やり とり
倒 さ
us e
な ぎ
取り 扱っ
P ol
ウェー ブ
観 戦
師 事
チ キン
汎 用
ク ラー
売 れる
V IO
バナ ナ
パ チ
降 格
ア ーク
織 物
le ction
メ リー
航 路
つ づ
ス カー
投 与
4 80
土 佐
淫 乱
探 索
返 事
あ つ
配 給
ベ ール
降 伏
退 団
セ グ
精 子
メソ ッド
三 木
ッ ティ
不 快
可愛 らしい
HE X
空 襲
課 税
P ower
呼び かけ
NE WS
バ ルト
満 点
和 解
絶 滅
ル ク
加 熱
に ぎ
奇 妙
や ろう
言 動
見積 り
対 話
コン ロ
コ シ
赤 坂
ア ベ
I X
廃 車
惚 れ
フ レンチ
東 武
ナ イン
11 1
加 圧
担 保
式 典
フェ ース
ドラ えもん
k W
レー シング
単 身
深 め
黒 田
刑 務
商 売
斉 藤
il d
満 たし
フ ロン
le x
g o
か わり
マイ ズ
6 000
下 がり
エレクト ーン
タ ップ
大 胆
配 属
お し
G irl
栄 え
紳 士
仏 壇
19 13
年 中
al k
星 野
冷 却
oo th
引き 上げ
フォー ラム
推 理
奉 行
AT E
ラン ダム
顕 著
am es
ト モ
BL ACK
パン ク
見 本
慢 性
眠 り
急 激
CM YK
今 井
名 詞
プロ ミス
ル ・
苦 しい
ヶ 所
再 発
天 下
ひた すら
介 入
赤 字
と ろ
シェ ード
キ スタン
着 く
都 会
防 犯
ファス ナー
36 5
加 算
定 年
ヘ リコ
D AY
ぐ れ
降 っ
国内 外
m i
ak a
ち に
レ ナ
ニ オ
切 断
たび たび
め き
史 料
デ リック
サ ロ
め ぐる
紅 白
さ さ
絡 み
受け 取っ
指 標
絶 望
リ ダ
スタン プ
.. ..
ス ルー
高 温
飛 ばし
c y
ノ イ
エ グ
背 面
ナ ウ
ダ ース
オ タク
公 社
車 庫
繋 がる
ワク ワク
Am er
M Y
津 波
ア ダム
空 手
内 祝い
探 検
去 る
頑 張り
チュー ブ
ハ ット
ツ ヤ
駐 屯
エン ジェル
ナ ノ
出 展
延 び
持 参
が み
厚 い
カ チ
10 9
P e
イチ オシ
読 ま
レコー ダー
N a
ア トラン
リン パ
s er
St ar
と ある
19 11
アク ティブ
迫 っ
伊 東
化 合
バ チ
A W
j a
ば り
侵 害
競 輪
ね じ
年 始
グ レート
美味 し
ファ ンド
スリー ブ
Univers ity
親 戚
新 生
olog y
Play Station
刺 繍
髪 型
そ ちら
気 付い
反 面
カル チャー
サン フランシスコ
ロー ション
C am
an y
ウ ール
ク ッキー
春 秋
首 位
ers ion
た まり
休 業
冷 たい
同 居
in al
信 託
種 子
シ ールド
揺 れ
右 手
チョ イス
南 米
ふ さわ
フ ュー
誤 っ
動 力
い す
が かり
視 線
よ そ
尽 力
ファイ ア
所 蔵
コー プ
処 女
補 佐
沿 線
速 い
パレ ード
ル ネ
忠 実
会 合
電 磁
佐 久
アシ スト
電 流
カ レ
フォ ント
J o
SH I
g a
メ ーション
会 える
広 大
W ar
M BS
随 時
感 度
C or
町 内
リア ス
郷 土
皇 后
チラ シ
サ ギ
プライ ム
エリザ ベス
余 儀
ヴァイ オリン
忍 者
た しか
g et
ジュ ン
リ ヤ
交 点
明 かし
成 し
褒 め
とも かく
着 丈
at s
ムダ 毛
無 償
男 優
ひ き
台 北
土 壌
のん びり
フェ ッ
分 校
D B
ス プレー
演 説
訪 ね
ベ ロ
キー プ
稽 古
そ く
カ 国
R I
em ent
セックス レス
南 アフリカ
下 げる
夜 中
カスタ マイズ
路 面
iz e
捕 虜
目覚 め
動 脈
果 物
フ ラー
生 態
野 党
し ら
ヵ 月
が く
奪 い
クル ーズ
ut ion
キ ース
エレ ガ
左 側
打 つ
奨 励
入 試
見 通し
牛 乳
直 ぐ
H er
レ バー
タ ラ
伝 達
生み 出す
中 将
真 珠
成 年
ラ ッキー
長 編
出 血
楽し かっ
In c
ノ フ
重 力
真 似
整 っ
矛 盾
う さ
気 筒
Op en
at her
遠 慮
白 髪
掛 かる
退 任
シェ フ
カー ブ
ブ ロン
めぐ り
ナ ット
越 える
R S
上 杉
トラ ベル
昆 虫
本 革
突っ 込ん
セ ッ
飲 ま
考 察
ik i
Pl us
ダニ エル
M od
U K
孤 独
迫 る
H ar
大 韓
サ ント
慶 長
発 し
" ,
シ オン
知 能
洗 練
藤 沢
小 島
M X
小田 原
[ [
招 い
少 な
サ カ
拾 い
ス プ
16 5
福 音
ou se
折 れ
面 し
Rec ord
大 抵
A c
貧 乳
預 金
農 林
番 台
ト イ
終 結
尋 ね
闘 争
チェ スト
ou p
前 記
真 ん
i OS
パー ソ
西 川
アラ ビア
く さい
卓 球
快 感
や わ
ブロ ード
ヘリコ プター
重 く
19 15
物 流
く ろ
コーディネ ーター
バイ ブ
尊 重
em a
室 町
l in
熊 野
チャ ージ
車 検
愛 好
あ け
半 端
惹 か
改 定
ビキ ニ
菊 池
壊 滅
B Y
ひ な
履 い
川 上
白 人
P OP
渋 滞
支 障
5 50
P U
ヌ ード
考え れ
サ ード
伸 縮
アド ベンチャー
盗 撮
親 族
決 まる
騎 兵
名 所
山 地
s o
き ょ
運 搬
勝 つ
学 長
m as
フォー マル
す っ
手 放
ジョ ーンズ
ダ ッシュ
ポー チ
ホ リ
もの すごく
フォー マット
旭 川
優 位
ラン ナー
ぶ る
ポ ット
スト ロー
ア グ
プリ キュア
強 引
10 7
ボー イズ
流 す
わ す
25 5
竹 内
実 証
包 ま
施 策
は な
印 鑑
11 3
欠 点
ズ ン
オ バ
ば あ
] ]
UE FA
掛 かり
断 念
不 動
さら さら
チュ ーム
タイ ガ
連 休
P o
背 後
解 き
死 に
味 わっ
基 調
パ ッチ
東 大
R ob
支 社
U C
こ ぼ
公 民
下 手
ど おり
ネ ーション
ひ っ
住 人
揃 い
主 宰
年 次
ブラ ッド
メモ リー
クオリ ティ
編 纂
パ レス
子 宮
騒 ぎ
19 08
叔 父
メー ター
宮 本
ボ ディー
名 物
在 位
天 体
き 出し
フィ ック
12 3
TE L
ザ ル
x x
当 院
ファ ーム
泣 い
い まだ
ピュ ア
府 中
ML B
自 在
抱 く
ブル ック
撃 破
物 資
出 土
家 賃
東 口
バル ブ
or s
述べ る
仕方 ない
タ ール
爽 やか
U SE
ぬ い
改 編
痛 く
オーガ ニック
リ レー
止 まっ
習 い
趣 旨
コス チューム
ごと く
待 た
村 山
とり わけ
セント ラル
検 診
偵 察
征 服
パーソ ナル
レンタ イン
ぐ り
治 安
r ic
new s
巡 る
MI X
死 体
見 込み
取 扱い
水 野
細 か
受け 取り
サイ バー
久 留
包 み
クト ップ
L ife
種 族
石 垣
真 相
運 送
大 井
8 000
日 焼け
請 け
高 かっ
こ たつ
基 金
リ メイク
平 等
所 定
両 面
ハ リー
冬 季
フェ イ
ラー ズ
和 食
加 わり
捨 てる
ファ クトリー
吹 替
グリ ップ
真ん 中
しま え
プロ イ
武蔵 野
安 藤
GE T
MA P
) ;
弾 き
ニ ズム
SH OW
近 頃
7 20
pl ay
ナ ラ
新 曲
不 全
古 着
麻 雀
-------- --------
11 4
Ch ar
アパ レル
島 田
持ち 込み
問 合せ
日 通
農 民
厳 密
新 車
除 け
あ う
Wh ite
セー ブ
オ ク
AR A
ノ ミネート
m ar
つ ば
名 刺
課 金
シ チ
制 し
キラ キラ
筑 波
常 時
見つ かる
駐 在
モ ロ
悪 徳
兼 任
曲 線
初 演
重 点
存 分
購 読
P RE
シャ ッター
ブリ ュ
抹 茶
19 07
火 力
アナウン ス
アー ケード
伸 ば
質 感
光 景
全 額
ナチ ス
下 がる
換 気
通 報
演 習
淡 路
vi ew
キャ ロ
甲 府
統 括
クン ニ
競 合
評 し
マ ート
イレ ブン
セ ガ
レイ ク
幕 末
含 み
ジョン ソン
やる 気
同 窓
楽 譜
洞 窟
デス クトップ
阻 害
夕 食
ち ゅ
独 身
B er
躊 躇
助 言
稼 げ
含 有
Lin ux
急 増
整 体
名 乗っ
不 便
話し 合い
バル セロ
魚 雷
君 主
荷 重
ハ チ
算 出
いか なる
ギリ ギリ
ast er
楽 章
クリエイ ティブ
ツ キ
ド レー
ノ イズ
捜 索
供 用
広 瀬
ぞ う
再 婚
トリ オ
国 分
止 まら
y a
アル ゴ
ざ ん
C he
ラ ト
ロー ター
ネ ジ
動 機
HD D
26 0
St r
見 出し
バルセロ ナ
k o
まし く
ミ ク
宴 会
つ う
学 級
温 暖
テイ スト
獅 子
信 濃
管 弦
行 ける
方 形
M a
他 者
コ ムー
こ っそり
覚 える
6 50
g er
吉 本
エ ゴ
19 06
ユニ オン
ひど く
ま かせ
ア ビ
受け 取る
ギ ス
日 替わり
取り 扱う
C SS
チ ベット
ジャ クソン
Su per
標 的
居 る
な ろう
救 援
トライ アル
譲 り
六 本木
大 豆
こ ころ
集 約
ベ ック
コーポ レーション
さ つ
ポ ス
M Hz
本 文
中 核
見 受け
旅 団
フェ ラー
com p
隠 さ
忙 しく
ラ ウン
ジョン ・
カ ブ
当 てる
サ ビ
おか しく
最 上
パ ズル
ic o
手 頃
セー ラー
す ん
G EN
ワイ ヤー
ギャ グ
ア グラ
デザ ート
9 80
A g
ヌ ル
多 種
パ スタ
Pro ject
M et
挑 む
あん まり
リーズ ナブル
t a
コムー ネ
電 撃
化 石
喫 し
行 え
ア ニア
ジャイ アン
両 立
サ ポーター
N T
チャ ル
流 域
oc al
尽 き
コン テ
プ リー
スタイ リッシュ
抜け 毛
マ ンド
東 山
サー キット
od y
概 ね
取り 戻し
ミ ヤ
刺 し
ドキュ メント
カ ニ
か な
マ ール
好 調
T y
os s
開 閉
恐ろ しい
番 線
郵 送
ブ リン
平 面
ディ オ
肝 心
酒 井
町 名
妖 精
it s
考 古
著 しく
о в
G PS
で も
艦 長
不 調
晩 年
家 屋
i en
w ard
とん でも
た え
11 8
カ セット
納 税
レ ジャー
ホ ース
頼 む
照 射
中 東
みな さ
バ ク
K S
ウォ ン
表 題
懐 かしい
分 か
H i
異 動
セル ビア
抜 か
田 辺
ip h
大き め
答 える
ゼ リー
K B
ヨ コ
占い 師
ブライ ダル
み なみ
ア ングル
情 勢
役 立ち
調 和
ガ チ
チョ ン
ト ニー
A u
薔 薇
ou d
クリ スト
恒 例
志 望
至 ら
ギ タ
志 向
ビ ーズ
ス ・
プロ フェッ
語 学
掲 げる
An n
ミ ド
山 城
こ み
フィ ート
W ill
解 明
赴 任
振 込
医 科
学 歴
ラ ウ
乗 降
森 田
奪 っ
統 制
延 伸
希 少
給 付
克 服
響 き
気づ か
三 河
イ ソ
スポ ート
c an
心 身
ルー マニア
ソー ラー
が ける
11 6
弱 く
洗 っ
ゴ ジラ
ズ ボン
it al
恐 竜
欲 望
資 材
】 [
格 納
強 み
民 事
デ ックス
IT E
備 える
ヤマ ハ
は ち
重ね る
左 手
力 士
レス リング
イ ブ
ダ ・
任 期
ラク ション
柔らか く
見 かける
如 何
g h
タイ ガー
to p
19 16
ゆ い
家 督
部 長
パ シ
メ ロン
T ime
改 築
貼 っ
河 口
洪 水
E m
就 業
京 王
同 性
引き 起こす
手 持ち
19 09
t d
m od
不 幸
ロ ニ
禁 煙
たた み
E A
J e
ダン ジョン
ぼ っ
蛍 光
バ レンタイン
待 遇
バー ガー
ギャ ン
目 立っ
Y S
やわ らか
キ ズ
Mar k
i T
× H
ち こち
最 古
N AS
ク ビ
満 州
Z A
く せ
炭 酸
造 形
引き 継い
V o
墜 落
三 田
住 吉
飲み 物
クト リア
疑 惑
フォ ート
R GB
骨 折
腫 瘍
アン ナ
常 勤
潜 入
積 ん
ひ かり
マ チ
サ ック
細 川
あ ちこち
塗 っ
平 凡
ob ile
口 径
G H
起 訴
焼 肉
う まい
ワイヤ レス
特 番
コ ニー
M r
信 者
有 る
太 字
肖 像
エ リート
盛り 上がり
ボ ウル
この 世
フロ リダ
ぬ る
ベ タ
ミ カ
塗 る
助 ける
接 着
F e
浜 田
預 け
シャ トル
トリ ウム
ミ ント
郡 山
日 数
S ou
ヴィ ス
W D
輝 い
中 京
オ ロ
し っとり
I AL
運 ば
ヘル ム
c al
連 日
バン ダイ
we et
大 森
組 ま
100 00
助 成
RO M
果た して
咲 き
も ろ
ト キ
倒 産
亡 命
ウ チ
頂 点
リ ャ
船 団
15 5
スポン ジ
任 じ
K U
オス マン
指 令
ピ ート
高 島
ッ セン
京 成
ステ ア
出 生
耐 震
O B
クラ ッチ
k en
和 泉
地 味
見 舞
コン パ
ゼ ク
In t
タ リ
ベ ニア
図 鑑
小 沢
ドリ ヒ
Off ice
救 済
権 威
マル クス
ツ ボ
カラ フル
因 子
願 望
拍 子
ピ アニ
誘 わ
控 除
玉 川
豆 腐
D ream
補 強
調 味
作 動
出 入り
長 らく
お さ
日本 橋
浮 き
焼 酎
庶 民
進 展
Sp ec
勧 誘
T Y
実 写
県 民
キャ ット
イ ラ
博 し
ミ シ
スパイ ク
好 む
ブレ ード
t w
フィ クション
あい だ
J AN
太 い
常 連
屋 内
神 殿
タ ック
徴 収
11 7
キ レ
リュ ウ
本 能
バ ッチ
Com m
ハ ネ
悲 劇
焼 い
解 像
絶 賛
蒸 し
まん が
や れる
ポ チ
台 数
ナ ツ
特 異
合 宿
食 感
et ooth
ロ ビン
モニ タ
フ ライト
バ ト
客 観
金 子
リン ゴ
" )
on y
コ ブ
誘 拐
bl og
高 層
ヒ ート
贈 ら
れ れ
造 ら
フレ ット
薄 型
たけ し
熊 谷
an e
ご めん
ヴ ン
オム ニ
気 配
大 坂
引き 起こし
プロ テ
麻 生
転 向
ベ ランダ
le d
ワ ット
格 差
落 選
J r
垂 直
崩 し
クラ ウン
OL D
ッ チャー
ライ ラ
AS S
V I
無 断
エ ッジ
er y
よ ー
間 接
列 島
切 れる
ニ カル
ブ ール
堂 々
サ マ
誤 差
19 05
が 一
万 が一
ダ スト
急 ぎ
っ け
エ ッセイ
7 000
F S
サ キ
ヴィン テージ
デレ ラ
セン タ
多 用
偉 大
後 部
踊 る
アル ト
グ レン
ヤ れる
健 全
D U
洗 う
富 田
松 尾
高 架
ヘル メット
遅 延
in f
S Q
n ow
ハイ パー
ナ ポ
p m
S l
じゃ あ
色 素
ハ ヤ
商 事
誤 り
ユ キ
パイ ズリ
ハード ル
ム ード
民 俗
飼い 主
転 売
抗 菌
教 団
お る
発 祥
上 旬
P T
友 情
埋 葬
中 田
早 々
怒 ら
c ess
ゾン ビ
リ ッツ
ス レンダー
イ ・
ベ クトル
ur n
ヒ ーター
が たい
e e
干 渉
小 牧
集 計
ブレス レット
返 る
O T
外 野
レ ージ
s et
薬 品
京 阪
ョ ー
ム ン
原 告
アク リル
物 事
せ つ
シン デレラ
イン ス
急 遽
運 河
リン 酸
導 く
しか け
那 須
一 斉
精 密
名 鉄
C OR
特 価
天 保
合 金
残 留
ビ ッド
眠 っ
New s
添 付
入れ 替え
G N
傾 斜
受 診
or i
ak i
S il
ビ ラ
T om
日 高
有 害
学 位
迫 力
専 念
点 数
恥 ず
噛 み
M IN
p or
25 00
顔 面
いっ たい
ロ ッド
公 爵
ヴェ ー
ギタ リスト
賭 け
ハ ミ
ト ク
丸 山
就 い
17 5
ベ ネ
乗 員
物 体
m s
Z ERO
浅 野
ポル ノ
ライ ム
衰 退
退 社
ノ ブ
ホ ップ
g u
総 長
, 「
A ss
友 好
官 房
ダ ック
フォ ルト
退 会
千 歳
史 跡
王 位
光 沢
南 方
ズ ラ
ニ ク
や ん
国 語
ウォ ーズ
遂 に
エンター テイメント
去 り
BO OK
登 っ
所 長
カ モ
先 ほど
や たら
及ぼ す
く つ
最 速
領 主
前 向き
E E
N or
ミ キ
N BA
拉 致
受 容
ふさわ しい
守 ら
品 物
伸び る
撮 る
蕎 麦
ワ ッ
ヶ 谷
上 院
化 し
シャ イ
複 製
税 理
G K
j apan
同 市
3 30
毛 利
醸 造
g el
N ight
支払 わ
ヴィ ア
イタリア ン
追 う
承 諾
B IG
壊 し
悲 しい
あ ぐら
暖 かい
ゾ ー
AI R
I M
ペ ニス
佐 世
キャ ス
ic an
ウォ ーク
促 す
Wi Fi
簡 略
定 数
小 路
褐 色
Tok yo
ドラッグ ストア
出 撃
件 数
越 前
佐世 保
U F
ヒ ン
ポリ シー
k Wh
日 帰り
変 数
時 折
AT O
熱 中
押 さ
久留 米
捕 獲
超 人
速 く
CE O
相 違
ピ ル
じ ょ
ラ ド
画 期
上 がら
キャ ビ
白 く
ゆ め
不 利
評 さ
高 岡
解 答
R ad
津 田
E F
大 腸
水 系
前 進
血 糖
エクス プレス
秋葉 原
ま な
ペン シル
クリス チャン
円 形
敵 対
S al
サウ ルス
隊 長
下 流
ハ イン
爆 笑
C X
加 わる
破 綻
US A
イン フォ
ワ ーズ
減 る
ータ ス
W AY
R ock
賞 味
エンター テインメント
ル パン
本 数
海 底
禁 じ
あ がっ
佐 伯
同 志
ノー マル
ミラ ノ
吊 り
紋 章
18 90
礼 拝
= =
パー フェクト
え り
つく ば
松 浦
吹 奏
ハード ウェア
冷 房
タイガ ース
I BM
ナ ギ
慰 安
W om
乗り 入れ
連 帯
ぐ っ
WOR LD
論 争
千 里
出 題
ステ レオ
後 退
操 る
甘 く
呼び 出し
可愛 く
ブレ ンド
八 重
称 する
H igh
回 想
新 井
浮 上
虐 待
Re ad
Blu etooth
シド ニー
撃 ち
倉 敷
ノ ミ
例 年
突 如
応 答
は し
作り 上げ
和 装
展 覧
勝 て
フリー ドリヒ
12 1
足 元
ね ぎ
アン プ
陶 器
か ず
" :
リ ミ
溜 まっ
足 立
飾 る
松 原
aw a
う か
殺 す
被 っ
連 発
ト ール
SP EC
form ation
ウィ ング
ナポ レオン
もっ たい
イ モ
宮 廷
v en
c a
ハンド メイド
合 間
垂 れ
ジャ ニーズ
一人 暮らし
リ ポーター
打ち 合わせ
落と さ
定 価
重 賞
8 50
文 法
ダイ ビング
sm tb
途 端
茶 屋
可 動
駄 目
乳 酸
足 し
" (
z e
リ ナ
部 外
S oft
テ ト
プロイ セン
低 迷
ウ エア
寄 せる
豊 橋
打 た
ネ ガ
B i
北 川
降 る
推 し
左 衛門
踏 ん
公 衆
八 戸
ジ メ
松 下
樹 木
アー サー
if i
食 卓
H and
学 部
西 宮
P K
ラン カ
初 戦
封 じ
申し 出
助 かり
ボー ダー
左 翼
ラク ル
ガ ッ
ᅠ ᅠ
ロ ビー
興 業
精 霊
リー ガ
B o
妊 婦
声 明
ディ ナー
シ スト
Ch rist
グ ルー
マ クロ
噴 火
紅 茶
直 営
島 津
北 口
あ ず
神 聖
パラ ダイス
マ ウン
スズ キ
遂 行
観 る
なく し
込 める
18 97
めぐ み
P AR
た って
YO U
し つ
教 諭
スイ ート
司 馬
エレガ ント
学 名
27 0
八 木
カメラ マン
っぱ なし
ハ ルト
難 民
歩 道
G IR
整 数
割り 当て
無 垢
陥 落
p ar
部 族
ク レー
半 袖
寒 く
T AK
下 落
無く なっ
導 体
エ アー
ピ エール
外 伝
おこ なっ
骨 盤
民 衆
ヒト ラー
ナ リー
キュー バ
コン プレックス
P et
恥ず かし
明 記
出 費
性 病
暗 黒
リット ル
レ ター
人 体
贈 る
B ro
ラ バー
嬉 しく
悲 しみ
携 わる
サイ エンス
部 署
AS H
ギャ ップ
F IN
望 遠
ポ ニー
酒 造
H ot
型 式
t ra
受け 入れる
2 25
上 空
対 談
D Y
19 01
秋 山
取り 出し
まと まり
T W
結 城
老 朽
始 動
大 川
訂 正
レ コ
も み
大 蔵
だ く
遺 言
飼 っ
消 耗
しゃべ り
小 笠原
モ ザ
シャ ネル
Y U
弱 点
ら ぎ
仕 入れ
ベース ボール
増 設
神 々
帯 び
ダイヤ ル
秩 父
公 募
ヨ ウ
疑 わ
支 流
まと める
前 橋
昼 食
道 徳
遠 隔
宇 治
突 撃
14 5
19 03
小 池
プロフェッ ショナル
r u
苦 しみ
最 長
喜 多
く ちゃ
嬉 しかっ
アル プス
秩 序
若 く
シ リン
大 河
承 知
F ree
er o
C al
圧 迫
稼 げる
バイ エルン
エイ ジング
各 々
伏 見
犯 し
C ore
オ ウ
un es
ヨ ハン
若 松
タ テ
18 96
皮 脂
ur l
買い 求め
P HP
割 と
ア ズ
狭 く
調 光
降 板
us h
解 禁
T w
下 院
湿 度
ボク サー
英 文
に ん
送 迎
薦 め
マツ ダ
肥 満
低 減
スト リーム
もて なし
特 撮
ik o
従 う
スマ イル
素 早く
多 岐
A p
ビュ ッ
12 4
夏 季
ジョージ ア
巡 っ
斜 面
良 心
首 脳
ピアニ スト
ネズ ミ
ジョ ブ
木 下
港 湾
ゴ ロ
ガ タ
上 原
片 方
ラウン ジ
眠 れ
c ar
お ろし
に おい
デ ター
ーー ーー
ファ レンス
捕 らえ
テ オ
和 子
平 行
童 貞
ル ナ
う ま
グ ン
見つ め
フ ン
し な
唱 え
内 野
原 案
外 装
恵 子
金 具
ディ ーン
絶 妙
滑 走
光 線
感 心
b ps
ま じ
スケ ベ
内 戦
マ ナ
D on
シ エ
ウォー キング
つ まら
乗り 越え
ナビ ゲ
真 空
温 水
御 座
直 結
名 人
R em
鍛 え
有 用
en n
ふ っ
眼 科
採 択
Wi i
理 科
is m
ver y
適 度
た ろう
開 ける
渓 谷
救 い
いっ しょ
海 戦
K D
寸 前
滅 ぼ
路 上
ぼ ん
津 軽
一 行
カ 所
ウィンド ウ
コ リン
d a
流 用
直 面
af e
パ ルス
白 鳥
下 関
回 す
フレ ックス
包 括
イ ナ
村 田
上 述
新 年
細 く
望 み
カル シウム
生き 物
き わ
厨 房
ピ ザ
妥 当
磁 気
近づ く
真 田
足 場
まつ わる
ソング ライター
転 倒
クロ ア
19 04
悩 まさ
リア ー
あっ さり
大 王
シ ッ
井 戸
ベ ツ
送 付
内 務
グリ ル
iph one
傍 ら
スク リ
ミュ ゼ
( -
高 まる
豊 島
いっ たん
引 換
ビュー ティー
初 版
日 用
いち ご
工 藤
ファイ バー
味わ う
ジャイアン ツ
TO E
丹 波
ch i
ハー モニー
ゴー スト
b ook
アー ノ
使 命
視 察
アー マー
re ad
型 番
フィ ード
屋 上
熟 成
ワン ダー
T op
ボ ケ
公 平
壁 紙
滅 亡
握 り
デ パート
旧 制
税 務
店 主
ザ ック
V al
新 興
少 なかっ
河 野
ブル ガリア
空き 家
13 9
工 法
J D
凍 結
建 国
理 系
ad a
石 炭
うさ ぎ
単 発
ジャ ム
売り 場
いち ばん
イ グ
ドリ ル
テン ポ
プリン ター
; &
支 所
頼 ま
P ART
朝 倉
ケー プ
折り たたみ
甲 板
飛び 出し
先 月
V is
進 路
関 税
p re
プ リカ
サ リ
めで とう
中 等
m at
ベン ダー
ミ ャ
浄 化
客 車
痴 漢
B est
咲 く
反 撃
トル ク
定 額
ル ーズ
転 載
振 袖
契 機
中 途
優 し
効 い
ボ ロ
ハー レク
の う
エア ロ
断 熱
トリ プル
あ ゆみ
そ ら
ま ね
クリエイ ター
あ し
ポ ータル
モ ナ
ダブル ス
秘 め
CL UB
集 客
南 口
近 衛
b ur
恐 らく
AP I
参 拝
点 灯
陰 謀
O VA
バ ニ
パ ニック
愛 人
E V
通 用
M D
弥 生
ビ リー
ハン ガー
乃 木
降 下
ト ス
入 店
ト リー
陽 子
ハーレク イン
開 封
頼 み
ディ スカ
ツ ォ
or a
バイ アグラ
ケン タ
直 ちに
当 たら
巻 く
戻 さ
12 2
税 別
神 秘
密 か
年 賀
参 道
イ ッ
素晴 らし
あ ー
フェ ルト
貫 通
頑 張
丘 陵
マス コット
国 務
戸 惑
漫 才
配 当
始 末
尾 張
公 正
氏 名
コ イ
ナ トリウム
配 線
N ot
中 原
A U
ナ マ
ゼ フ
未 知
潤 い
染 色
バ ウ
マ シ
ル カ
ミー ティング
AA A
洗 剤
熱 く
ボ リー
稲 荷
鳴 り
G old
uc k
特 色
剣 道
宜 しく
つ め
生 前
膨 ら
越 後
仮 名
掛 かっ
加 茂
難 波
グ ルト
兼 用
通 ら
公 国
ヶ 丘
19 02
th at
T U
次 官
創 建
美味 しかっ
留 守
開 花
クレ ア
広 まっ
整 える
交 戦
sh op
青 葉
メ アリー
大 尉
虐 殺
焼 失
骨 格
反 論
乗 務
菩 薩
ir t
M c
ヴェ ネ
存 じ
め っちゃ
空き 地
導 い
金 田
書 院
農 村
多 大
着 工
遺 族
18 5
ブライ アン
st er
ヤク ルト
m ix
Cl ass
ir st
近 辺
T our
安 芸
с т
づ く
蹴 り
IS H
怪 しい
づ き
一 角
Z U
ク ソ
ロッ コ
達 人
くだ さる
コ ナン
本 郷
目 立ち
ミュージ アム
幽 霊
役 目
よ み
v is
ヴォー カル
接 種
AT A
プ ソン
転 用
イ ライラ
en e
17 8
スト リ
フォ ール
城 下
P H
ちょ い
GRE EN
一 宮
ブ ックス
グ ッ
信 じる
入 札
ふ じ
在 日
1 19
マ ヨ
変 異
摩 擦
ag es
ヒ アル
アー チ
ぶ ち
シ チュ
呪 い
ミュン ヘン
パ スポート
レンジ ング
飲み 会
SA LE
百 科
プレー ン
必 然
画 素
王 女
ハ ブ
保 ち
支払 っ
ザ イ
イノ ベーション
S un
誘 っ
儲 け
海 兵
申し 込む
仮 説
US S
誠 実
ライ フル
佐 川
20 5
平 田
奨 学
手 の
ラ ラ
ウェ ン
採 取
自 律
_ ^
化 け
牧 師
NE C
S w
um e
ず り
レ バ
本 音
12 6
取り 戻す
; ;
M at
急 性
C AR
重 なる
抗 争
等 々
農 場
単 一
生 体
討 伐
ne y
ストレ ージ
テレビ ジョン
筋 トレ
増 す
途 上
ト ラス
急 い
鳥 居
座 り
パン ダ
増 殖
先 祖
内 海
ro p
担 任
二 塁
朗 読
バル コニー
別 々
同 国
ク レンジング
M en
こと ば
暮 れ
ドラ イン
組み 込ま
肯 定
ウィ キ
トリ エ
決 着
中 退
ス ミ
浄 土
相 馬
的 確
紙 幣
幼 馴染
飛 鳥
か ぶ
われ われ
マー ティン
ハー レム
S an
通 訳
釧 路
カ ワイ
フィット ネス
ヒアル ロン
付 着
ズ ・
面白 かっ
12 7
嫉 妬
導 き
豊 臣
I m
プロ セ
三 宅
危 惧
鶴 見
コ タ
ル ックス
er a
中 性
I H
ロ マンス
AP P
取り 外し
就 航
ス カル
n al
s k
隊 員
だ る
換 算
か たち
at es
B as
注 入
萌 え
K ey
ズ ーム
岩 崎
同 作
PC MAX
松 岡
キ ツ
怪 物
フ タ
ケ ツ
ム ス
四 日市
協 奏
ペ ッパー
繁 栄
公 司
捕 手
茶 色
クロア チア
定 時
透 け
年 下
エ スカ
ム チ
く さ
たい てい
ヨー グルト
IS T
gr am
合 える
ト ミー
ハイ ライト
4 40
燃 費
追い かけ
ク ローズ
シェ ー
給 食
配 下
クロ ム
クロ ネコ
警 官
ロー グ
IC O
av el
デ ンス
模 索
原 型
キ ミ
欠 け
W atch
l og
G al
M i
沈 没
手 がける
火 星
S G
続 々
癒 さ
ガイ ドライン
ノー ベル
In d
タ スク
従 軍
本 願
M EN
チェ ロ
連 想
つな ぐ
Goo d
農 地
受 託
山 内
ま ど
巡 洋
都 度
ず い
サプライ ズ
支 出
B u
恒 星
D av
豪 雨
ふれ あい
ゼ ーション
出 願
力 学
数 千
マウン テン
ジ ーンズ
量 子
エク ステ
符 号
バージ ニア
椎 名
吐 き
貨 幣
こ め
ー ん
フロー リング
コー ラ
ミ スター
相模 原
ダイナ ミック
農 薬
弘 前
止 まり
ナイ ター
園 芸
抜 擢
( "
ディ アン
細 工
命 中
ラ ード
コンディ ション
c el
遮 光
除 外
W I
放 課
神 学
盛り 上がっ
K K
着 色
ウィリアム ズ
14 4
景 品
麻 衣
所 要
慌 て
フィ ッシュ
St udio
S erv
CT ION
出 かける
石 鹸
自 国
ストライ プ
ツィ ア
ホ ロ
カ ネ
p ost
上 方
on s
ation s
殿 堂
醍 醐
吉 祥
アー キ
脂 質
人 質
ion s
先 代
模 し
ヒ ゲ
5 40
3 80
オー ラ
テイ ク
アス リート
す く
L i
日 の
グ ッチ
ナ シ
実 体
矢 野
ポケット コイルマットレス
イ ニ
常 務
ステ ッカー
L ight
将 校
パウ ロ
た ば
辞 職
愛 車
ひ ょ
図 り
拳 銃
親 しま
ユ ウ
イン デックス
苦 戦
まと まっ
良 さ
智 子
ク セ
片 手
容 赦
首 長
ファミ コン
宣 告
RE AM
バン コク
苦 痛
重 なっ
入 国
ス パー
v al
b a
os h
法 廷
ムー ブ
博 覧
ライブラ リ
駅 伝
ad d
亜 鉛
シャル ル
Z Z
都 立
ライオン ズ
任 さ
ダイ ア
he l
宮 内
にぎ やか
母 子
梅 雨
明 かさ
対 称
腸 内
クイ ック
併 合
13 6
増 刊
y u
強 め
p le
特 設
許 容
D AN
牡 馬
双 葉
振り 返っ
He art
at ive
いわ ば
名 門
営 利
18 98
香 料
乗 用
通 す
クチ コミ
ガ チャ
ex t
海 域
大 公
ステー キ
ツ ッ
道 中
食 欲
彫 り
南 極
まとめ 買い
勧 告
中 堅
リー チ
おい しく
あ ふれ
チ タン
アルゴ リズム
新 社
転 勤
民 法
ルー ター
少 佐
パー プル
セ レクション
モ モ
AC T
New Line
ホ ークス
J F
階 層
完 売
重 傷
不 振
有 馬
木 曽
マ フラー
絞 っ
裏 側
ポ ータ
H Y
調 停
交 易
曜 日
手 芸
解 く
失 礼
W ork
タイム ズ
マド リード
ジャ ーズ
時 空
ジョ ル
変 遷
後 年
н а
触 っ
日 比
app y
ゥ ー
多 額
隠 す
四 半
微 乳
び れ
ロ ッカー
温 かい
サ リン
オムニ バス
細 部
吹き 替え
ギ ング
シチュ エーション
C N
保 っ
元 禄
プ ラー
逃 げる
S V
裏 切り
民 家
テン プレート
ブ ッシュ
別 府
K EN
由 美
ウル フ
独 り
ステ ータス
ム ズ
田 原
F RE
mm er
ビ ートル
着 替え
硬 化
十 郎
叫 び
思い 出す
レー タ
撃 墜
白 川
プ トン
お やつ
商 号
AM E
立 花
c i
サ バ
im a
グ マ
月 間
魅 了
免 除
酷 い
今 朝
青 空
多 発
婚 姻
引き 出す
ブ ッ
役 職
クラス メイト
k ey
方 程
気づ く
砲 撃
先 駆け
モ デ
ザ ス
パ ース
お それ
ご ま
ティ ーン
肝 臓
み ゆき
中 津
大 雨
ブラ ウス
シングル ス
一 夜
D ec
内 緒
巧 み
IC A
クラ ッシュ
地 質
解 け
・ デ・
代 々
敷 設
ヘ ー
チェ リー
ウ イング
立 法
会 費
ジャー ナル
慶 応
王 立
囲 碁
ホワイト ニング
0 80
有 数
ロー ソン
ダ ーズ
葛 飾
恵 比
りん ご
リ ターン
良 質
レ アル
目 当て
大 国
転 生
C AT
神 楽
振 っ
おっしゃ る
X P
Ty pe
エディ ション
奈 々
d ata
鉄 板
タ チ
魔 力
ス チュ
× D
R AD
高 圧
っ ぴ
ウェ ールズ
き み
松 江
ゆ とり
奪 う
懲 役
遥 か
シ ィ
技 師
藤 本
カル タ
下 地
宮 古
フ ツー
13 00
仕 切り
精 液
過 言
な な
ジェ フ
つく ら
金 色
新 卒
T ON
胡 蝶
18 99
真 夏
ガ ウ
転 校
ぬい ぐるみ
望 ましい
D i
エ リック
ス イング
サ テ
ム リ
字 幕
バイ バル
14 00
S ol
g oo
IT Y
あきら め
9 50
プ ッシュ
ラ ヴ
設 ける
信 念
濃 く
孤 立
じゅ ん
集 結
L U
曇 り
C re
コン ペ
B AR
怒 っ
敢 え
薬 師
ビ オ
信 越
長 調
センチ メートル
近 世
de x
R CP
北 上
th is
参 画
出 番
永 井
壁 面
探 せ
ペ ルー
ガ レット
家 計
転 落
半 額
ニ カ
ホーム ズ
バー チャル
水 晶
フレ ッド
寛 永
リ ミックス
潮 吹き
G W
パ ット
更 なる
話 さ
成 熟
om o
まし て
中 年
ゼ ネ
ort s
イヤ ホン
本 家
ch an
V IP
オ ールド
プライ ス
む ね
カ ッター
実 戦
発 する
ason ic
ディ ナ
う っかり
マ インド
デ フォルト
感 性
すば らしい
じ て
禁 断
パー マ
名 目
打 席
通 院
SE O
与 党
奥 行き
有 権
ざ し
巻 い
bo ard
標 識
別 冊
行 進
引き 継が
田 園
デラ ックス
v o
オリ ックス
マ ム
波 長
巡 回
城 主
警 部
効 き
水 面
鈴 鹿
ヒ ュ
サン ス
ほ の
ライ ナ
マ スカ
さ ほど
N ational
尾 崎
原 点
あ がり
ネ ギ
ST Y
サスペ ン
復 刻
ベ リア
どう せ
金 持ち
少 量
アント ニオ
スピー チ
pres ents
プライ ド
ちゃん ねる
営 む
裏 面
3 40
滑 らか
ア ワー
のぼ り
OK A
み らい
キャビ ネット
拒 絶
任 天
ノ キ
S N
大 神
ロ ク
美 脚
まち づくり
一 同
ニャ ン
つ り
ソ ラ
オ ファー
西 方
イン ズ
満 了
搬 送
ire ct
ザ ール
C U
こ な
おい し
ド リー
手 塚
過 払い
ジョ ニー
A ct
l i
盗 塁
str ument
触 媒
n m
交 番
187 1
メ ータ
小 樽
み せ
順 序
歌 わ
ブラ ザーズ
手 袋
col or
も れ
薬 学
西 田
V IE
別 荘
Ph oto
最 期
騒 音
ak u
ユ リ
依 然
な ぞ
告 発
M ed
定 理
南 京
シア リス
d et
in i
航 行
ハマ っ
フェ チ
x t
m er
ダ ート
ア ッパー
人 称
コン スタン
名 曲
北 野
Z e
年 少
本 項
受け 止め
タ レ
r ol
原 爆
交 わし
準 拠
え え
酔 い
ちょ こ
横 綱
チャンピオン シップ
LO W
強 盗
ナ ード
劇 的
控え め
一 色
カ リス
飛ば さ
D IS
ッ テ
胴 体
伊 賀
角 質
右 翼
配 偶
8 80
樹 立
- %
山 手
皇 太子
マ ント
ピ タ
all y
クロー ゼット
優 子
補 充
北 斗
チャ ーズ
T ri
原 宿
改 組
世 論
母 体
取り 入れる
発 現
ハ ーン
志 願
判 事
р а
13 8
z a
目 立た
NE XT
暴 行
ア バ
及 ん
m usic
う け
石 橋
悪 かっ
あれ これ
音 質
日 蓮
退 役
健 一
C ity
大 社
ph oto
P D
l er
d s
C ap
不 二
御 殿
届 出
待 合
中 立
厚 く
川 村
仮 装
さっ ぱり
イ ヴ
et y
メ ッキ
準 々
握 っ
朝 廷
飛 躍
持ち 歩く
ぱ く
分 配
クレ ーム
が す
過 酷
寄 生
白 山
皆 無
ゴ リ
ミ ッキー
標 本
S B
TR A
御座 い
刻 印
貸 金
チャンピオン ズ
一人 ひとり
似 合う
ヒル ズ
手 掛ける
無 休
T SU
リ ペ
メ チル
中 型
両 側
公 明
M er
こ む
en se
奉 納
ストロー ク
の っ
音 色
ま みれ
促 し
宣 教
経 理
サスペ ンス
騙 さ
11 00
ベ リ
見舞 わ
遊 園
器 用
チャ イルド
輩 出
お およそ
口 調
パロ ディ
E r
り つ
羽 毛
引き 受け
政 令
等 級
練 馬
頂 上
er al
サ ックス
斬 り
モチ ベーション
防 ぎ
さっ き
ンド ラ
作 ろう
つま み
U FC
訴 える
逃 走
アディ ダス
オ ックス
O ut
フェラ チオ
解 任
W in
不 当
管 内
ミ ール
伊 予
学 期
ナチュ レ
留 まっ
異 名
メカ ニズム
暖 かく
Spec ial
口 腔
製 法
S ky
よ さ
反 し
追い 込ま
付 録
正 教
賛 同
伸ば す
出 向
ぎ ょう
コ マーシャル
集 積
H R
BM W
青 少年
音 波
な 〜
IS A
187 3
何 処
M G
ニ チ
シャ イン
プロセ ッサ
縫 い
月 給
イラスト レーター
フ ッ
家 系
検 事
欲 し
FE ST
カー ズ
id s
ち び
ヒ ドロ
天 板
スパ イス
クロ ック
恵比 寿
S k
un t
何 十
見 逃し
St ore
改 変
吸 血
水 槽
共 用
さ よ
さよ なら
有 田
H y
25 6
供 養
羽 根
餃 子
共 編
ウ サギ
プ タ
部 活
奪 取
アン ジェ
地 蔵
浮か ぶ
阿 波
学 芸
服 部
浅 い
ホ ビー
板 橋
年 々
支 線
次 期
ス ウェット
紀 伊
断 っ
相 棒
通 じる
ルー フ
テ イル
パン フレット
" >
大 工
リ ソース
カン ボ
ジェネ リック
B AN
めちゃ くちゃ
ハ ゲ
合 致
n ing
M U
管 区
ホ ウ
刻 ま
随 分
シン セ
itt le
Pan asonic
S ing
工 科
バ キア
可 決
小田 急
回 さ
大 沢
追 悼
s a
牝 馬
fer ence
保 温
メイ ソン
と れる
O f
モ ヤ
満た さ
レイン ボー
地 裁
直 樹
西 鉄
つい つい
プライ ズ
日 テレ
NE O
ク ラン
下 さっ
パイ ア
金 髪
カー ディ
ード ル
指 針
タ コ
親 交
S UN
カク テル
別 売
ハン マー
ネイ ティブ
西 暦
ぱ ら
散 策
し わ
大 原
分か れる
流 入
g y
ur al
アイ ボリー
J ack
モザ イク
ふん わり
見 逃
つ ら
皇 子
ネイ リスト
試 行
部 材
スマホ ケース
ob e
消 える
利 根
駅 名
受 章
オー ネ
車 輪
タ フ
岡 村
ゼ ー
難 し
ゴ ッド
サ ボ
沙 汰
per ia
) [
m ore
マ ゼン
能 登
ア トリエ
各 駅
独 裁
ファ ント
ab y
名 乗り
本 国
移 る
陣 営
ネク タイ
引 か
硬 貨
L et
アク ティ
提 言
登 校
C AS
奮 闘
欲 しく
肥 料
新 入
落 合
v on
遭 っ
ブラ イト
ツー リング
近 親
富士 見
思い 込ん
ウィ ー
御 所
ラ テ
K ING
メディ カル
艦 艇
離 れる
出 そう
平 気
願 う
ゼ ミ
大き かっ
とど まっ
代 官
ステ イ
ほ っ
不 法
探 査
問 う
誇 っ
べ し
せ き
小 柄
F P
激 似
新 刊
病 棟
明 示
書 け
主 観
イン プラント
d el
Inst agram
映 し
プロ ン
シ ラ
ッ ソ
楽 園
ア シュ
et c
g re
基 幹
ヴィル ヘルム
本 州
特 例
聞 け
鉱 物
上 回っ
レ ジェ
今 季
チャ ップ
じ わ
兼ね 備え
納 め
麻 薬
P ort
激 怒
U l
大 石
新 町
伏 せ
橋 梁
15 2
持ち 運び
リト アニア
ずい ぶん
r is
S am
トラ ップ
un e
iT unes
陥 る
之 介
sh ip
花 柄
視 力
若 妻
4 30
L td
養 護
アル ミニ
Record s
異 例
つな ぎ
R AM
ド ミニ
食 糧
ロ ース
ア コース
t s
振る 舞い
en a
好 ん
芸 名
Cl ub
6 80
f uk
漂 う
カンボ ジア
正 統
M ax
税 抜
Sch ool
阿 弥
18 95
カイ ロ
H ER
起 因
急 便
W BC
家 政
硬 い
ピン チ
V TR
写 メ
育 つ
が え
大 村
三 塁
捧 げ
フォル ム
定 格
ア ・
不 審
症 例
構 わ
内 陸
擁 護
領 事
体 温
牧 野
闘 い
シン ク
M ich
フォー カス
移 設
追 及
泊 り
客 員
々 しく
MV P
バ タ
鳥 羽
幼 なじみ
O UT
イ マ
ビュー ティ
制 裁
太 刀
西 尾
い で
仕 上がっ
放 ち
ou ch
効 か
機 嫌
ノ ム
衰 え
チ カ
ト レイ
最 寄
パ ケット
ダウン タウン
W IN
ra in
全 曲
奈 子
元 素
ウォー カー
187 2
え い
スタイ リング
天 地
r al
哲 也
尼 崎
AK I
4 90
ツッ コミ
て つ
大 成
裏 地
暑 く
it ar
セ ッツ
若 き
現 職
三 好
ニ スト
K Y
下 北
鉄 筋
16 7
有 村
ヶ 崎
北 村
18 80
なる ほど
犯 行
文 房
結 末
ショ ーツ
16 8
**** ****
アコース ティック
Amer ican
専 任
公 安
インスト ラクター
か ご
手 足
色 使い
18 75
キ ヤ
オート バイ
王 妃
おか ず
辞 退
配 分
ドラゴン ズ
4 20
ナ リ
アップ ロード
イ ロ
反 響
生 誕
消 失
strument al
オ メガ
袖 丈
測 量
生 育
H ome
フ ュ
ステ ラ
13 7
太 夫
次い で
つ ぼ
風 土
襲 っ
春 夏
片 道
く に
西 郷
ストライ ク
S im
マル ク
マゼン タ
糖 質
はじ まり
クラー ク
救 わ
作り 出し
オ ード
ユ ン
ID OL
az z
アイ ロン
葉 酸
us s
人 柄
バ コ
B P
テイ ラー
おと な
台 所
山 陰
クロ ノ
スティー ブ
パ ブリック
慰 謝
キャ ノン
広 め
テ ュ
無 数
プラ ズマ
プロ バイ
ub er
ア セ
不 妊
イスラ ーム
ディ ック
ひ ろし
跳ね 上げ
仕 上
キュー ブ
18 68
ro ss
驚 異
肩 幅
K e
F re
貸 切
荒 木
通 気
アルミニ ウム
木 目
13 3
釈 放
内 藤
手伝 っ
専 務
進 ま
井 沢
ラ ビ
分 譲
空 調
タン ス
幸 運
プ ン
ロ ップ
来 週
立 憲
薬 用
コス モ
よ こ
交 互
土 屋
12 9
c as
警 報
大 根
て き
反 する
デ ビル
歩 み
-- -
ホ ールド
チュ ウ
ノ ック
シン ポジ
クー デター
18 86
w are
ッ と
g in
TI ME
お こう
Tech n
投 球
ミリ オン
SQ L
` *)
ベ ッ
松 戸
便 座
ファイ ブ
ケ イト
クロ ウ
土 砂
ディ ・
本 種
13 2
櫻 井
O G
フェラー リ
屋 台
S MAP
咲 い
ひ め
当て は
曽 根
フォ ックス
プロダ クト
シーク レット
社 交
露 天
サー フィン
ぐ ち
AN T
V ideo
ジェ リア
ポータ ブル
ホ ーン
格 子
他 方
斬 新
E ar
R X
多 重
ギャ ラク
天 満
手 動
モン ズ
赤 く
腹 部
治 す
AM P
歌 声
ティ エ
c le
見 なさ
久 米
刈 り
ハイ ビジョン
ワー キング
デュ アル
番 外
赤 外
棋 士
見 れる
ア ワード
涼 子
集 配
h ar
ヒュー マン
ま こと
対 峙
ド レッ
一人 一人
終 始
失 業
や み
ク ワ
演 算
積み 重ね
シンポジ ウム
本 堂
三 条
硬 式
援 用
ル ビー
バ イン
実 情
ト シ
カー プ
オ キ
撃 退
断 ら
ク リン
水 路
日 系
祝 福
iv al
目 論
いち 早く
落ち着 き
学 力
デ ヴィッド
笑 う
離 し
吉 岡
B ack
河 合
フ ルト
ヴィ チ
D ER
リ ウム
ag on
水 族
預 かり
消 臭
本 校
観 念
下 水
アイ ディア
フェ ニックス
目 玉
菅 原
il le
ひ げ
創 出
ic ial
ネス コ
招 く
コミュニケーション ズ
ik ip
アト ラクション
好 物
巫 女
遊 べる
封 入
15 6
a el
オ ニア
ペ イド
バ レン
定 休
re l
さっ そく
乃木 坂
信 州
縄 文
シャ ドウ
市 中
街 中
新 橋
がんば っ
対 空
マ キシ
L C
速 やか
工 務
金 井
娯 楽
省 エネ
華 麗
ボン ネル
r it
イ ザ
喜 ぶ
及 ば
都 営
ウ ソ
エ タ
フット サル
包 丁
性 感
食 用
アイ ヌ
群 れ
コン プ
エ マ
経 つ
式 場
爆 破
基 板
後 世
ト マス
シ ックス
眠 る
要 し
D el
ひ まわり
ハ ド
負 わ
動 詞
怪 人
ハ ニー
ざ り
飛ば す
T KO
愛 犬
ナ ナ
ソ ワ
他 国
L ab
グ リー
好 奇
断 言
Sec ond
楕 円
創 り
い まい
折り 返し
甘 み
パシ フィック
3 10
例 え
プラ ダ
マサ チュー
人 文
スク ー
紛 失
プラ センタ
親 衛
キャ ピ
WA VE
地 盤
無 職
キャン バス
ty pe
リ セット
S ong
物 品
マサチュー セッツ
万 全
出 世
パン プス
の せ
光 る
後 援
内 臓
発 散
条 項
ウェ イト
バ ンス
八 十
嫌 わ
誘 う
ば っ
ib le
耐 性
uk i
視 界
インディ ーズ
肺 炎
ビ クター
川 内
溶 接
b u
— —
ネタ バレ
Sc ript
余 地
灯 台
体 格
同 型
老 化
ウ ズ
船 体
P al
フェン ダー
N av
メタ リック
駆け つけ
全 裸
if t
ブレ ム
ス ナック
灰 色
オ チ
グ アイ
常 磐
厳 格
デリ ケート
リハビリ テーション
G AR
義 母
S o
ivers ary
Wi MAX
控 訴
炎 上
og r
舞 踊
h am
と い
K ing
検 知
とら え
民 放
移 さ
15 3
浮か び
ニ ウム
エル フ
増 田
ボ ット
部 会
X peria
バー ベ
ホル ム
失 踪
ikip edia
減 額
ウ インド
フェ ザー
ST U
在 任
浮 世
予 言
寝 室
辿 り
ネ パール
舞 う
ペ イント
均 一
b um
熟 練
後 楽
ッチ ェ
m ail
フレ ア
着 目
ヤン キース
バ ネ
俳 句
チーム メイト
優 遇
土 台
中 々
内 面
目 次
告 示
直 行
アー ツ
埋 込
きっ ちり
要 ら
は て
16 6
持ち 込ん
網 羅
Des ign
篠 原
登 る
ジャ ングル
ぜ い
Re g
長 寿
含 める
ク モ
招 集
万 能
解 剖
水 域
見 極め
如 来
白 河
フル ート
15 8
野 口
めぐ っ
S ur
ヶ 原
鋭 い
幾 何
セー フ
カル ロス
少な から
に ほん
サテ ライト
ホ ーク
内 定
投 下
o T
ふ し
ボ ラ
丁 度
築 き
18 93
ギャン ブル
お ろ
至 り
届 ける
s ub
マ ーズ
X S
公 会
t i
ン マー
就 労
M em
本 多
母 音
5 20
M ay
C RO
歯 周
18 92
初 恋
阿 蘇
好 ま
間 近
き め
書 物
開 口
使 者
先 住
フィラ デル
哨 戒
サ ントリー
淀 川
( *
優 雅
ド ス
黒 ずみ
ス ラム
法 定
17 6
フォル ダ
名 づけ
要 領
スム ージー
成 る
ロ ケーション
入 園
杉 山
貧 乏
放 電
聞こ える
コン ポー
エフ エム
寄 贈
待ち 合わせ
i ence
密 接
FA X
大 黒
B G
大 崎
微 笑
管 制
黒 色
くつ ろ
曲 げ
酸 味
源 泉
ブ ラー
偽 装
近 接
フィラデル フィア
オル ガン
靴 下
アテ ネ
バ スター
既 婚
事 象
j o
プレ ッシャー
内 視
飛 騨
ゲ ス
総 数
イン テル
с к
当 面
変 革
通 商
s ol
絶 大
販 促
酵 母
フロン ティア
いわ き
四 方
彗 星
受 給
落 成
進 撃
15 7
プリ ペイド
クル ート
н и
カワイ イ
安 易
IV AL
政 務
駿 河
外 す
廊 下
担 い
キ ネ
下 ろ
頼 っ
間に 合わ
キ リン
] (
み そ
コ ネク
セイ コー
水 色
着 実
リー ル
ニ ティ
セク ハラ
15 1
wwww wwww
麻 布
0 40
題 名
が 丘
宅 地
伊 丹
採 掘
踏 襲
暴 露
ers on
アルファ ベット
か ま
本 尊
チュー ン
終 える
バッ ファ
9 60
ヘ アー
応 える
ビル ド
本 館
S ound
強 かっ
振 付
r pm
wit ch
ぶ し
カ リー
苦 しん
Ed ition
エッ センス
c es
絶 品
組 成
待 望
18 94
LI FE
抽 象
繰り 返さ
申し 分
円 滑
買い 求める
18 87
アニ マル
ア ヤ
チェ ス
みな と
カロ ライナ
J IS
ハ ンス
アンド レ
cl ass
教 区
じ ま
B T
い さ
常 陸
ネク スト
フェ スタ
u ct
江戸 川
M ix
ア ッシュ
オ ヤ
サ ミ
船 長
亡く し
稲 葉
14 8
13 4
et s
ふ つう
魔 物
トレ イン
松 島
SH O
播 磨
或 いは
ポ テト
大 小
挑 発
ペ ダル
ん ぼ
一 撃
遮 断
提 起
おもしろ い
モ ットー
受け 継が
アン リ
テナ ント
チ ウム
皮 切り
min i
寄 る
稼 い
遠 方
TOE IC
20 2
チョ ー
うつ 病
済 ん
農 園
ST R
Ser ver
一 律
妥 協
戦 記
30 1
f il
京 浜
盛り 上げ
出 入
流 行っ
ひと み
初 出
叢 書
叶 え
レジェ ンド
立 案
サスペン ション
ド ク
同 校
僧 侶
マ ヤ
股 間
キャ ベツ
没 年
パ キスタン
16 3
ミ スト
ボトム ス
吉祥 寺
田 川
発 光
皮 革
寄り 添
ざ わ
ク ック
琵 琶
迫 ら
SPEC IAL
メロ ディー
オー ブン
産 後
14 1
特 産
ジャ ージ
討 論
An gel
む つ
粉 末
負 債
さっ さと
泥 棒
黄色 い
勾 配
付 随
マ テ
錯 誤
ね 〜
魚 介
増 や
や める
ウィ ッチ
ヒ メ
致 命
18 91
ボー イング
先 制
追 いつ
ゥ ル
た こ
バ シ
16 2
ワ ース
リ クルート
培 養
欲 しかっ
湿 気
C y
主 権
l ove
軍 艦
187 8
っち り
三 昧
大 介
新 着
ジ ップ
座 る
ガ ッツ
いまい ち
C I
産 経
ふ み
啓 発
テク ニカル
エン ジョイ
直 撃
ヨ ル
衣 服
結 衣
洗 える
若 年
C HE
緑 地
セ クション
ロ ーム
所 沢
ウ ッ
T X
如 く
肩 こり
つ とめ
レ ギ
教 習
狙 撃
低 温
row n
奈 美
創 始
酔 っ
ビートル ズ
En ter
注 釈
A GA
暗 く
エク サ
屈 指
理 性
国 旗
貯 め
冗 談
ell a
効 能
定 食
かえ って
のぼ る
18 70
ユ ネスコ
カリ キュ
た れ
普 遍
マク ドナルド
[ #
カ ギ
i us
シェル フ
買い 得
領 地
マ ケ
id ge
6 40
有 益
破 る
キ ノコ
生 ん
モ ミ
点 在
きわ めて
ゴ ス
ぶ た
ほ や
ひ い
図 ら
d en
ひ ょう
入 植
/ /
舞 鶴
ソナ タ
IC K
追い 詰め
括 弧
f ace
B ank
労 力
取 寄せ
AN N
O H
フォ ロ
手 首
焼 く
狩 猟
沼 津
生み 出さ
Cl oud
書 面
かわい らしい
18 85
硬 く
申し 込ん
し める
即 座
に ぎり
尾 根
恩 恵
功 労
' '
J CT
仮 定
伊 那
キャ ニオン
Gr and
B BC
会 え
ギャ ング
マー ガレット
B ig
もと より
たば こ
傷 つけ
カ ルト
幕 張
シュタ ット
奪 還
武 力
論 じ
ミャ ンマー
ch en
い たる
び き
直 感
絶 景
効 力
年 長
キ ッ
盆 地
SP OR
作 風
ic le
ハミ ルトン
転 写
退 学
有 罪
バッチ リ
太 もも
直 近
in ess
18 88
t ime
痛 め
専 修
車 輌
ロー ラン
しゃ ぶ
4 60
到 来
忍 び
ill a
スクリ プト
カリキュ ラム
日 韓
染 み
フェ ミニ
物 産
メル マガ
b ar
誓 い
M K
寂 しい
カ シ
pl us
見 舞い
便 宜
ul ar
の ど
聖 人
語 源
IN T
アダ プター
ジャ スト
ど なた
か 国
冊 子
敗 れる
スノー ボード
ヤ ル
新 居
ネガ ティブ
デル タ
ワ タ
くる み
ニ エ
脅 迫
ペル シア
書 簡
且 つ
奄 美
イ ヌ
何 事
小 西
鳴 き
ク ア
スト ール
知ら さ
感 激
スリ ップ
ティ ム
ガン ガン
天 野
女 装
老 眼
l ing
ザ ラ
縛 り
レー サー
高 槻
リノ ベーション
親 しみ
修 繕
拷 問
】 ,
逸 品
グリ セ
得 票
み かん
サー フ
臓 器
ば っかり
コ カ
B ill
L M
自 力
注 ぐ
太 っ
代 わる
在 り
日 刊
香 水
M OR
日 清
納 品
E K
ウ ケ
久保 田
閉じ 込め
桐 生
ion al
T er
泣 く
プリー ツ
並 木
ビ ィ
気 付か
文 藝
シー リング
買い 上げ
抱 か
新 婦
発 作
覆 う
バーベ キュー
岩 田
オー シャン
執 事
アト ピー
好 感
断 層
アル メ
p ol
振り 返る
炊 き
L ib
M IT
色 気
弾 薬
ペン ギン
上 越
st yle
リ フレッシュ
14 7
八 代
パワ フル
サン ブル
同 局
su per
麻 痺
台 頭
国 体
揺 れる
ell o
天王 寺
H ist
G i
e in
つぶ し
可 視
武 者
ミ ッ
小 隊
ナ ポリ
練 り
^) /
味 付け
アサ ヒ
び ん
多 田
ウィル ソン
Will iam
ジ ミー
はじ める
ゾ ナ
莫 大
t v
クライ マックス
B re
高 麗
yl ist
感 触
b all
ロ ラ
新 婚
面 会
草 津
CO MP
18 76
ニ ヤ
H F
巡 礼
富士 通
サ タ
アウ グ
エイ ジ
受 取
着 き
セット アップ
ビ ザ
U RE
b i
F ri
高 地
養 育
26 5
こん ばん
さ やか
iv es
ノ ット
挙 行
狙 わ
G HT
LD K
達 也
バラエ ティー
没 頭
プロ ポーズ
着 心地
イン ディア
アン サンブル
み なし
挑 ん
罰 金
羽 生
転 移
神 道
頭 脳
レ プリカ
童 話
貰 う
ハ リス
アク セル
片 岡
格 段
AC H
カット ソー
割 っ
堀 江
AY A
爵 位
太 り
軽 井沢
B el
司 祭
四 角
郵 政
目 録
高 騰
金 山
上 っ
Vi ew
真 言
中 佐
写 し
志 摩
ケ リー
離 さ
ー リ
ラ ング
ゾ ウ
Y ork
各 色
発 熱
思い 切っ
入 所
P ubl
W ER
修 学
ip p
台 東
安 政
13 1
il y
撤 回
記 す
18 84
谷 口
軍 用
大 東
志 村
づ ける
バック パック
タイ マー
レンタ カー
h o
直 さ
心地 よい
脆 弱
N at
オ モ
バ ックス
N V
遊 戯
d f
挙 式
ワ ックス
家 畜
Y our
八 百
在 来
セラ ピー
理 工
鎮 圧
ur es
のり ば
コ ップ
ノ ード
突 起
シュー ティング
義 理
L V
カ オ
D ig
セ ーター
一 新
拭 き
築 地
増 税
注 い
チ レン
ロー ブ
se c
花 園
ア ツ
走 ら
A H
ゆ ず
風 合い
アン コール
制 圧
色 味
ヤク ザ
欠 陥
らし き
サ ザン
ナ イス
大 寺
パ ピ
作り 出す
危 ない
マー チ
ol f
ミ ラクル
聖 地
苦 しく
催 眠
エ ックス
側 近
飲 酒
Te am
パ ード
市 制
ヴェネ ツィア
こ もり
h r
書 道
9 000
サン ディ
呪 文
アレ ックス
周 回
ヤ シ
まっ すぐ
特 攻
何 者
187 4
V ersion
チャ ネル
案 外
塩 化
杉 並
5 60
N TV
張 ら
陸 奥
t im
中 枢
表 さ
re c
特 権
強 豪
ir a
和 服
土 器
次 女
加 齢
同 上
メ オ
アップ グレード
て っ
全 日
お せ
ズ ー
P SP
4 10
やさ しく
ス ナップ
お れ
ノ ・
w atch
無 難
ジョ イント
Gre en
X box
大 師
新 春
移 す
ク ローン
佐 倉
R NA
し ず
刻 み
ツ バ
for d
争 う
落 札
バラ バラ
ウエ ディング
スパ ーク
床 下
懐 かし
確か める
JR A
川 原
S oci
錬 金
Dis c
祈 願
ぜん ぜん
二 の
ケ ネ
14 3
ハッ タン
授 乳
at ing
99 9
サ ミット
挿 絵
梗 塞
平 井
教 官
潰 し
就 く
破 れ
日 和
後 編
四 条
西 山
パラ メータ
友 だち
あ だ
2 15
リモ ート
Dav id
静 止
フ ス
ぽ ん
ど ろ
個 展
ヴィ ヒ
エンジニア リング
破 棄
M k
リ ピート
ヒー リング
納 入
今 治
白 濁
シュ ガー
アーキ テク
商 会
インター ン
L ad
m b
カラー リング
ファ ニー
ニック ネーム
STY LE
素 子
ギ ルド
Y E
予 感
ユー ゴ
ケ ガ
降 水
あ おい
祇 園
ナム コ
シ リアル
夜 行
撃 沈
は た
スーツ ケース
カ ゲ
ニン テン
吸 引
頼 る
過 度
ou gh
大 物
パチ スロ
始 発
痩 せる
18 2
もら おう
法 政
浮 かん
陥 り
M il
Y Z
炒 め
カン ファレンス
貨 車
キ ラー
ワー ナー
殺 到
マン ハッタン
19 2
易 い
ン シー
Rad io
町 長
p os
富 ん
山 川
デリ バリー
貯 蔵
配 管
て れ
Pa ul
f in
初 音
表 れ
話 せる
佐 渡
aw as
I oT
享 保
救 命
醸 し
射 殺
炊 飯
w orld
連 鎖
ひ さ
監 禁
St ud
虫 歯
皮 肉
着 こなし
カ ヤ
ス キャ
キ ティ
ざ っ
永 田
バン バン
三 原
映 え
秘 訣
187 9
す のこ
I VE
ス ゴ
タ カラ
P at
怖 く
補 完
f un
大 した
コク ヨ
招 聘
ラ ート
ワ ニ
マ シーン
図 面
AT T
長 所
ふ ら
国 々
ぱ ん
い じ
アジ アン
アイ ム
極 力
さ み
スパイ ダー
ダ ール
代 々木
花 見
ド ローン
マ イト
裏 腹
スーパー マーケット
江 東
18 3
Pr es
(^^ )
首 席
位 相
遵 守
B ir
ほ ぐ
竹 田
一 味
市 電
オ ジ
鎮 座
ボ ア
ポジ ティブ
ダ グラス
総 集
P ost
タイ ツ
ッ ペ
K ind
18 69
Th is
不 用
外 食
タ ウ
ショ ール
学 士
J our
リ フレ
値 引き
ロ ・
iP od
残 存
J C
ダイ バー
反 転
タ キ
リ ベ
限 る
ak er
本 山
20 3
r ad
殺 菌
^ _^
アフ ガニ
国 宝
LE CTION
t ube
ナ カ
rom e
0 50
味わ える
特 製
f ile
連 敗
障 がい
アフガニ スタン
グ ルス
ぐ ん
下 野
原 始
ライブラ リー
共 訳
14 2
8 40
ど る
や け
ロ フト
千 秋
ハ ツ
一 口
m en
驚 愕
カウンセ ラー
ち か
ザク セン
N IGHT
歪 み
バ バ
お ち
ゲ リラ
ふわ ふわ
告 げる
浄 水
ヴィ クトリア
引き 分け
召し 上がり
おせ ち
Ann iversary
I F
アトラン タ
定 評
ord er
レ ・
差し 替え
マ ロ
いち いち
バス ケ
祖 先
湾 岸
無 用
ベル タ
y e
N FL
y our
代 用
八 郎
T rans
am i
水 田
着 せ
ドゥ ー
譲 っ
手 助け
帯 広
昆 布
ap e
マル コ
^^ )
ネイ ロ
L ittle
む くみ
L u
テ リア
ナ ガ
わ れる
町 村
極 める
T K
削 り
亡く なる
強 要
サ ヨ
スパ ル
エ ヌ
コ ング
A Z
等 しい
ゆう こ
エナ ジー
29 0
V C
迷 宮
L o
平 塚
天 狗
持ち 運ぶ
C oun
万 里
古 来
ミネ ーション
ルー シ
ファイター ズ
勝 率
リー ディング
多 忙
オバ マ
え び
機 密
肌 触り
エンター プライズ
へ い
T im
パ ト
受け 継い
ビ チョ
一 線
係 数
キャ サリン
ジョ セフ
溜 め
15 4
手 書き
スティ ン
ナ レーター
議 事
コ パ
魔 界
止 まる
指 向
校 区
クー ラー
鍼 灸
セラ ミド
ユ リウス
le ment
停 電
あ か
デュ オ
リング ス
列 伝
m ylist
マイ ナチュレ
か おり
血 行
キャン ディ
D REAM
★ ★
白 井
たま ご
卸 売
隼 人
アナ タ
ラ ッセル
新 郎
厚 木
パ トリック
EC T
釈 迦
硫 黄
ガ メ
頑 張る
あ かり
子 役
n ight
ボン バー
ニ バル
宇 和
ri b
A BS
抗 体
ダ ウ
パレス チナ
半 径
詰 める
ボ ム
日比 谷
おお むね
モ ーツ
14 6
購 買
県 庁
返 却
多 め
砲 兵
HD MI
萩 原
カル テ
寛 政
s l
ミ オ
M ore
イ ム
有 志
ピア ソン
イ リ
握 る
栄 光
m em
みず ほ
波 動
オ ハイ
火 事
不 況
傭 兵
弾 力
プロト コル
カリス マ
シ ーツ
改 題
版 画
N R
た まっ
の 間
戸 籍
膨 張
ライ アン
フ リル
聞 かさ
邸 宅
おこ なわ
ド ニア
タニ ティ
B ox
I Z
党 首
伝 道
15 9
レン ガ
向 ける
美 咲
投 じ
ラ ージ
細 身
飾 ら
エクサ サイズ
台 場
就 活
拾 っ
開 戦
書き 下ろし
ソロ ジー
納 言
s ite
滅 多
クロー バー
瑞 穂
カ ザ
ス モ
セ デス
枠 組み
リ ポート
和 室
グレ ゴ
re g
トロ ール
っ ぷり
さ ば
厄 介
課 長
つ ん
混 同
目 の
サイク リング
全 品
大 友
D irect
S i
主 将
エル サ
アソ コ
残 高
外 さ
市 原
st ar
犯 さ
ビ ティ
0 60
A cc
主 席
舗 装
眺 める
生 駒
馬 車
チャ ーム
オハイ オ
イ マイ
農 学
ス グ
津 山
ージ ング
加 害
せ めて
ぶ どう
im age
押し 付け
治 癒
兼 務
um i
スケ ッチ
ST O
久 美子
腎 臓
ス ウィ
ber g
小 室
鳥 類
16 1
やり がい
オ ズ
名 簿
B ER
脱 い
吾 妻
観 覧
前 編
t en
ベ ント
暴 れ
ホ フ
分 担
大 門
余 分
Ph il
U D
の め
一 塁
お にぎり
デ ジャ
テー ター
グリ ッド
N D
磁 器
イチ ゴ
MO VIE
G AL
反 動
CH O
3 70
こ いつ
4 70
なめ らか
ペ スト
ミ ノ
和 柄
小 遣い
甘 味
直 人
ドラ マー
黒 川
O s
炭 水
嬉 し
全 車
アル カリ
落ち 込ん
背 負っ
レ ト
C a
望 月
ゴ シック
Wom en
ベ ジ
古 河
O g
妨 げ
ハー バード
ET C
S at
没 後
替 わっ
コミ ュー
F il
ファ スト
HO ME
有 形
あ そこ
ハ ーツ
か ぶっ
片 側
鮮 明
イ ア
救 っ
パ ステル
上 る
ペ ディア
ピ ス
ス レッド
哺 乳
もたら さ
汚 い
S IG
パイ オニア
不 死
喜 劇
臨 ん
穀 物
es ter
捕 食
B oy
閣 僚
恨 み
い ずみ
ひ る
二 宮
呑 み
武 術
G OLD
ま ー
K BS
L Y
G ame
ス バル
C AD
A ward
収 縮
セラ ミック
院 内
そり ゃ
て く
ージ ン
AM I
う ず
やっ ぱ
ホッ ケー
B LE
指 先
校 歌
フリー ランス
お かし
el s
窒 素
ミュ ラ
口 内
壮 大
射 程
ター ズ
転 居
カ ヴァー
イ ッチ
商 用
青 汁
五十 嵐
S AK
田 口
打ち 出し
ちん ちん
エレクト リック
i ro
貸 出
14 9
羽 織
フラン シス
入 部
絵 柄
リ ィ
カ レン
野 望
C at
池 上
C BC
チ コ
重 なり
プレ イス
わざ と
取り 付ける
35 00
発 車
id as
聴 取
積 載
U I
ア イン
拍 手
忠 誠
ウィ ルス
デ ブ
Pre m
キャバ クラ
m ag
ペ プチ
免 れ
対 馬
ワー プ
いた ずら
メモ リアル
出 動
セ リエ
乗 組
音 量
水 力
間 取り
ec k
s al
上 達
E uro
um p
し お
M art
囚 われ
10 80
エ ヴァ
のび 太
せ く
メル セデス
運 休
そ ん
ドン ナ
ら う
マ タ
z z
き い
Girl s
C m
ポ ッド
w a
断 面
氷 河
誘 致
ペ ロ
労 務
愛 着
駐 輪
サー カス
過 失
18 82
ス ネ
賞 賛
安 保
ハード ディスク
ア レン
於 い
少 子
法 制
ッ シ
無 双
冠 し
遅 れる
ト コ
ハ ガキ
op h
修 業
00 7
18 8
リ ントン
内 外
系 譜
戯 曲
落ち着 か
本 場
b ack
判 別
紀 行
農 産
デ キ
V P
ネ ント
旗 艦
スプ ーン
新 川
もう け
い のち
入 隊
ノ ヴァ
踊 っ
イマイ チ
構 える
リッ ヒ
g ar
ク ィ
流 星
コス モス
乱 交
生 後
K ar
O ver
気 付き
um ber
っぽ ん
広 東
タバ タ
定 住
痙 攣
プロテ スタント
風 間
ク レーン
ぶ れ
人 目
inf o
C W
悟 空
フィル タ
トロ ント
フラン ツ
び ら
流 動
ボー グ
セク フレ
M ov
東 亜
たい へん
味 覚
思 春
C AP
大 垣
ホ セ
ash ion
腫 れ
イン ポート
プレゼン テーション
ス パン
豊 川
S he
夜 明け
激 突
P ay
勤 める
熱 狂
母 乳
ポリ ウレタン
公 布
探 る
スト ロング
尽く す
パ タ
霧 島
キャロ ル
カ サ
ウー マン
退 院
一 条
若 葉
モノ クロ
苦 しむ
王 室
J un
太 く
En gl
直 轄
山 村
B AS
因 ん
宇 佐
谷 川
国 債
PL US
は まっ
修 羅
P ark
覗 い
B and
用 品
C AL
ス ラー
ルー キー
HO T
カ シオ
極 限
秋 元
ギャラク シー
フ レンズ
牛 肉
Z IP
ゲ オル
つ ぎ
ん じ
清 浄
CH I
超 過
17 2
ペンシル ベニア
M H
━━━━ ━━━━
ウ オ
収 支
現 し
忘 れる
フォ ワード
マ ッド
苦 悩
構 図
ひ こ
Ar ch
ピ ッツ
ヘ キ
ケンタ ッキー
休 養
そろ っ
つ ね
愉 快
部 員
C AN
殴 り
マン チェスター
E lect
ク ッキング
切 替
EN D
ヤ ツ
コン ボ
リミ テッド
も や
ア ング
兵 力
厩 舎
ム スリム
支 局
製 菓
プロ ジェ
ス クラ
家 老
用 心
脱 走
ジェ ント
い な
ナ オ
南 端
ポ ピュ
倍 率
拡 充
星 座
AR E
ガン ダ
W al
ロー タリー
元 町
ゴ ット
AN GE
オックス フォード
調 布
就 役
優 勢
生き 残っ
伴 奏
ac he
素 朴
大 家
亡 き
未 明
見 どころ
モテ る
作 物
動 揺
日 報
役 人
スク ロール
き つい
襲 い
23 5
カーディ ガン
捉 える
ミ シェル
A FC
ひ ざ
ピラ ミッド
ロ ア
ード ン
ケネ ディ
ヘ ッ
西 野
洋 画
緩 やか
し んど
淡 い
協 調
on o
片 山
拾い 出し
カ ラス
ヒ ラ
ワ ケ
Mich ael
16 4
シリア ス
振 ら
変 貌
延 べ
給 水
浮か べ
構 い
正 室
ol a
モーツ ァ
写 っ
ペ ナル
義 父
絡 ん
黙 っ
艦 船
ピ エ
迷 う
さら さ
ブース ター
ギ ニア
計 上
旗 本
無理 やり
坂 井
テ ネ
物 価
in dex
話 しかけ
全 開
退 屈
良 き
アス レ
たる み
後 押し
拝 見
樋 口
わ た
承 継
氏 族
気 力
トラ ウマ
W ith
皇 族
fuk az
un der
エ フェクト
デ ール
W OW
弾 い
おこ なう
エル メス
追 撃
愛 国
面 談
さわ やか
フィ ス
バ ディ
ピ オ
大 関
ジ ーン
弾 圧
招 か
投 げる
du ct
ファ ブリック
楽 しま
夏 目
ガ レージ
一 転
枯 れ
来 院
釜 山
盗 ん
温 め
チュー ナー
網 戸
D u
中 西
炭 鉱
神 谷
fukaz awas
ベ ネズ
試 みる
中高 年
M iss
隠 居
長 持ち
き く
所 領
元 帥
ムー ア
大 作
シャ ス
気 楽
IS E
DI O
B us
クリ エイト
匹 敵
遠 ざ
アイ リス
16 9
真っ 白
こ もっ
ジェ スト
アイ フル
ist a
下 っ
無 縁
熱 海
f ul
偽 物
驚 か
と こと
賃 料
ジョー ダン
次 長
フィード バック
洋 子
・ ド・
知 性
美 穂
退 官
陰 陽
打ち 切り
シリン ダー
消 さ
飯 塚
堆 積
き ゃ
こだ わる
ド ロー
一 昨
かか わる
シ ベリア
抗 生
クリー ナー
無 敵
ur y
T N
は ぎ
Man ag
問 屋
18 81
極 東
防 寒
] )
栗 原
親 善
t ain
伝 記
略 奪
バラ ード
全 編
デ イズ
盛り 上がる
知 多
20 8
補 う
チュ ン
泊 まり
com m
YA MA
全 滅
相 姦
ト ナー
日 活
縛 ら
貰 い
K iss
セッ ティング
同 法
FIN AL
l ess
カ ゴ
取 組
文 政
ぶ つけ
i or
ゴ マ
礼 儀
下 す
IN K
は がき
Gr oup
カ ズ
ダイ エー
消 去
払 わ
ナー ズ
米 子
旋 回
2 24
キヤ ノン
ヘ ビ
カ エル
Le g
抹 消
持ち 帰り
備 わっ
n ect
古 賀
流行 り
J E
右 利き
マグ ネット
あ たし
三 宮
桃 山
ジ グ
LE T
I KO
刺 身
学 べる
ホル ン
公 言
再 興
モ ラ
右 腕
増 築
挟 ま
デ ッ
響 く
く ち
メ ア
喘 ぎ
S pr
共 生
円 盤
l ist
ぬ き
不 信
チャー リー
エ ッグ
セ ダン
下 田
17 3
色 白
重 厚
ロ ブ
挟 み
縁 起
天 草
無 罪
En g
壊 さ
不 眠
ま じめ
浸 水
ハ ワード
頑 丈
数 列
デ リー
造 成
一 橋
リバ ウンド
刺 さ
毎 朝
バ ッド
sy stem
衝 動
健 太
あ がる
ハ ピ
ベネズ エラ
徳 間
踏 切
ぷ ら
消 火
コ レクター
18 60
土 俵
か ゆみ
寄 稿
欠 場
NAS A
FEST IVAL
孤 児
he ad
ア ライ
あい さつ
ル ミ
肝 炎
生 む
優 待
気 動
裕 子
Ass oci
テ リ
王 道
全 土
収 める
六 角
明 細
コンポー ネント
ター ビン
か ろう
セ ージ
漁 港
イー グル
爽 快
re et
でき たて
or o
納 豆
ブレ イン
嫌 悪
Fi re
t rans
さ あ
J ST
品 目
激 減
特 命
マスター ズ
N H
総 括
P W
そ び
固 く
年 配
le g
オ ース
コー スト
M al
一 大
吉 村
グラ ブ
SH OP
ヤリ トモ
com o
アルメ ニア
コロ ム
フラ ッグ
凝 縮
ヤ ミ
有 楽
和 平
バ ドミ
だく さん
鉛 筆
ニア ム
ウ イス
働き かけ
休 ん
稼 動
one y
起こ ら
S Y
仮 設
心 境
女 流
返 せ
U FO
18 77
ig inal
バドミ ントン
~ ~
擦 り
G C
住 職
機 内
パー カ
新 報
囲 む
水 雷
浅 井
要 員
志 賀
血 流
平 原
vol ution
H ol
嫌 っ
培 っ
お なか
往 来
旋 律
坊 主
郡 区
ロス ミン
G et
対 比
リン カーン
St and
揉 み
17 7
鶴 岡
オリ エン
ッ スル
迎 撃
2 11
たん ぱく
珈 琲
20 6
使い 分け
ド ラント
フォー ミュラ
洗 脳
RE COR
c in
品 揃え
宮 川
とこと ん
合 コン
軌 跡
離 陸
al s
詩 集
執 政
事 柄
陛 下
シェ ン
バッ ジ
] 、
ふ くら
台 本
挙 句
水 谷
v ar
ニ セ
先 駆
バース デー
マイ カ
あら ため
パー ソン
本 機
親 しく
タイ ア
経 ち
M ot
18 1
キュ ン
門 下
Col lection
葉 山
足 ら
s ur
s ide
北 極
K C
モーツァ ルト
ル ーク
ハウ ゼン
オ ニ
オン リー
臨 む
訳 あり
テ ックス
N OR
大 木
イル カ
ピ ッ
翌 朝
衆 院
繰り 広げる
A QU
マ スト
敬 意
セ リ
マッ ハ
ライ ティング
年 内
退 場
明 神
右 肩
市 道
居 心地
20 4
C RE
о р
営 ん
やす かっ
R ich
天 津
共 存
石 灰
サム ライ
協 賛
捕 まっ
歳 暮
注 ぎ
3 90
IC T
ク ジラ
ス ッ
履 行
コネク タ
バ リュー
局 面
這 い
とき どき
SO D
米 沢
史 学
軍 勢
ヤ バ
s erv
パン チラ
ユーゴ スラ
お 陰
開 会
み き
香 取
文 京
苦 情
トラン ク
る る
黒 木
クイ ーンズ
m et
キ ンス
商 社
執 り
各 所
ra ft
没 し
玄 米
成し 遂げ
貰 え
買 おう
規 範
承 り
形 容
恵 み
if ic
ハ ト
スペ シャ
k Hz
長 州
閉 塞
オー ロラ
ワン ダ
永 禄
がっ かり
未 定
ア ゲ
ちん こ
小さ め
埋 める
受 領
秀 樹
フ ・
包 ん
虚 偽
占 拠
J AL
ヒ ャ
政 界
劣 る
若 林
b et
祭 典
l ight
代 役
福 袋
坂 口
フランク フルト
よ ほど
7 60
判 例
日 吉
コロム ビア
和 也
大 内
敢え て
素 顔
ミズ ノ
n i
引 け
貧 しい
カ エ
レー ティング
el f
エージェ ンシー
あだ 名
余 っ
置 換
働 か
長 門
及ぼ し
F D
田 島
Su mmer
飲 め
伝 わり
思い っきり
さり げ
ロー リング
チン チン
ア リア
歩 け
国分 寺
お や
敢 行
石 巻
振り 返り
NP B
肌 荒れ
採 り
原 油
ボ ルド
シン クロ
G Hz
よ ば
里 子
w ord
乗り 物
逸 話
周 知
プラ ハ
ハッ キリ
発 刊
インテ リ
M obile
ッ シー
搬 入
仕 える
著 し
平 坦
神 崎
ギ ガ
00 3
の 内
ハ ッチ
c er
モ ロッコ
L T
兄 妹
O b
丹 後
ルイ ヴィトン
デオ ドラント
S OL
茹 で
h ref
芝 生
M el
少 なめ
遭 い
皇 室
とう とう
i ent
返 答
上手 い
バル ーン
京 子
D own
佐久 間
I LE
ソ フィア
見 込ま
IN O
ポ ツ
ディ フェンス
特 捜
下 さ
淫 ら
豚 肉
慣 習
シュ ル
AR U
ホ モ
マグ ロ
子 爵
所 管
リン ズ
ウ キ
沈 黙
ü r
ア ホ
宝 物
当 り
顔 立ち
ラ ファ
肛 門
ティ ティ
あ み
強 行
v a
M AT
茨 木
美 里
システム ズ
外 資
カ バ
進 入
野 郎
トラン ペット
レー ヌ
C ry
民 謡
わが まま
上 層
静 脈
カリ ウム
毎 晩
くだ さり
ナー レ
カ ド
フォ レスト
浴び る
P i
リ チウム
挫 折
盛り 込ま
砲 塔
発 情
ash i
m al
Re al
親 方
吹 い
排 泄
説 教
カン タン
王 家
ist er
ボル ン
サ バイバル
トリ ガー
締め 付け
気 持
瑠 璃
7 47
ら せる
イ リノ
深 める
色 調
遊 撃
sp ec
嗜 好
根 元
そ っち
局 所
nb a
シグ ナル
党 員
黒 く
v an
Rob ert
o ther
放 り
ジャ ース
id a
チャ ック
富 豪
カ ノ
づ つ
事 由
念 願
レイ ヤー
Ch amp
閉 め
H appy
セ キ
Japan ese
Fl ash
一 門
無 名
参 院
ヤン キー
耳 鼻
電 灯
ユー モア
悩 ま
頂 けれ
事 案
照 らし
常 設
まど か
亀 山
握 手
病 理
え み
50 1
M bps
石 器
ステ キ
ハン マド
イー グルス
ク エ
バ ナー
しな やか
叔 母
エレクト ロニ
決 心
ュー ズ
ま くれる
X R
ステ ロイド
IC S
夏 場
ob al
つな げ
裕 福
鎮 守
常 温
K i
W est
パ ノ
後 遺
紀 子
長 老
18 83
編 著
説 い
ワ ラ
同 点
換 装
寺 田
こんばん は
林 道
明 瞭
at ic
ピー チ
s ize
耐 熱
18 4
ネ スト
アラ サー
AK A
A h
援 護
エクステ リア
ほの か
味わ え
貰 える
メダ リスト
E nd
プ ラク
Po int
ムーブ メント
つ ない
L im
塗 布
フォロ ワー
欠 席
カリ ブ
粘 土
id er
まず い
セン サ
ストー カー
筆 記
試 す
R a
D ie
宇 部
30 4
回 帰
と なり
ミリ タリー
コ メン
ギ ブ
創 価
有 線
S KE
内 訳
遺 品
消 毒
欠 品
期 日
菅 野
製 鉄
銃 撃
勝 者
透 過
L ong
切り 替える
行き 来
き る
洗 礼
相 関
募 金
競 艇
O O
ペ リ
In strumental
ax y
暴 動
選 別
ア クト
ス プラ
中 尉
くれ れ
g irl
呉 服
インター フェース
AK U
イリノ イ
ヒ ア
館 内
プレ ステージ
優 等
17 00
撥 水
臨 海
同 地
浮 い
ロ ジャー
仮 称
リオ デジャ
スト ッキング
am b
掌 握
ri x
m ac
う っ
コ ナミ
パ シー
叩 い
九 十
知 見
P op
u it
尾 道
もの すごい
B ON
替 わる
特 筆
にゃ ん
西 ドイツ
u de
吹 田
リオデジャ ネイロ
ル ル
日 露
水 回り
ヒ ョン
宇 野
年 表
シア トル
中 略
陽 気
里 奈
ま ゆ
猶 予
続 行
ク ・
ホ ス
オ タ
R ay
ウォ レット
パ ブリ
冷 やし
キャス ティング
- 【
未 遂
有 人
前 々
廃 校
引 出
費 やし
エ プロン
奥 田
催 し
校 名
戸 塚
藤 岡
サッ シ
引き 継ぎ
エク セル
国 営
デジ モン
く すみ
ピ ュー
北 見
6 60
ク サ
答 弁
噴 射
は く
リ キッド
出来 れ
滝 沢
キ メ
対 局
後 見
生 姜
賢 明
丸 い
湧 き
Word Press
む す
ジャ マ
続 出
17 4
痕 跡
ヤ フー
遺 構
ブ タ
ディア ム
ブ エ
ロ レックス
先 述
筑 摩
両 端
馬 券
ステ ロール
ヴ ュ
スト ーム
D ata
つぶ やき
困 ら
使 徒
年 寄り
競 う
っ す
UF J
値 上げ
掴 み
祭 神
イ ット
払 え
ア コム
コ ールド
ス エ
ドロ ドロ
参 事
講 じ
アム ステル
と び
研 磨
p i
原 曲
下 町
17 1
ウイス キー
ニコ ラ
あらため て
バー タ
Sh ow
小 豆
意 地
成 形
短 調
ian o
D an
in to
ゴ ードン
青 梅
ヘ ラ
生 田
利 子
30 5
I Q
ガイ ア
Ex cel
新 装
スキャン ダル
祝 祭
ヒ カリ
報 復
詫 び
チュ ール
立ち 寄っ
アダ プタ
帰 省
ファイン ダー
目の 当たり
名 入れ
リン ピック
アド バンス
お の
フェ イク
シェイ プ
ドレー プ
M or
心 得
アンダー ソン
私 的
スク ウェア
連 ね
スタ イン
とも ない
il ity
ク オー
ハイ キング
入 選
ルー ニャ
追 記
リ ネン
増 幅
前 夜
ふ とん
ジ ロ
マ クロス
ソ ム
ハン バーグ
スタイ リスト
吹 く
アク リーム
フリー ター
ティ カル
ミュ ウ
顕 微
理 屈
キー パー
天 空
も る
リ ネット
イル ミネーション
Part y
凱 旋
豊 中
パー キング
ざ っくり
特 記
ロ スト
時 事
ショ ーン
ベ ガス
ユ ル
5 80
ピ リ
変 速
身 の
可 変
コミュー ン
L ink
引き 換え
ST AGE
蜂 起
笑 わ
L v
天 平
ロー レンス
づ らく
少 尉
毛 皮
マイ アミ
硫 酸
Gu itar
フ ライン
S weet
ほ っと
プ ット
UR A
m oto
動 け
コント ローラー
OP EN
マグ ネ
G Y
J AM
有 明
任 ぜ
サイ コ
ond on
起 工
サヨ ナラ
・ リーグ
ひ かる
ら せ
マ ヌ
真 宗
内 包
A lex
ス ギ
出来 上がっ
ソロ モン
杉 本
R F
н о
プラン ナー
フラン ソワ
大 判
本 業
18 9
リペ アクリーム
セ メント
ル ック
元 祖
性 交
ヴァ ージョン
昨 夜
ゼネ ラル
アーキテク チャ
ベート ー
アレク サンダー
ファ ック
ヒュー ストン
きょ く
ア オ
擁 立
大 まか
YK K
ドラム ス
デ トロ
建 てる
J ul
帰 ら
Kind le
カ ト
ロスミン リペアクリーム
長 者
治 世
ふ さ
コント ローラ
財 閥
IN A
悲 惨
デ マンド
授 け
サー モン
害 虫
盗 難
ま ろ
J ames
引き 出
L og
ウ ラン
ユーゴスラ ビア
K AD
弾 丸
エイ リアン
桑 田
ケ ーン
出 港
M ID
植 木
複 線
大 江
攻 勢
マジ カル
D a
エ ヴァン
マー カー
ひ も
エ メラ
算 定
建て 替え
台 地
M edia
手の ひら
重 度
※ ※
クラ シ
vel op
P OR
ベ ータ
浴 槽
色 違い
乳 房
参 列
もっ ぱら
づ い
み え
エ リカ
キャ ンドル
身 幅
聖 母
高 雄
デトロ イト
西 南
B en
社 外
シチ リア
固 体
フライ パン
大 船
瞑 想
p ubl
長 け
モ ク
ch o
cas io
― ―
ナ リズム
抜 粋
証 人
パ レット
赤 穂
ip s
Soci ety
主 砲
エルサ レム
ア ラス
寝 台
シン フォ
^^ ;
: -
バ ング
未 熟
ストー ブ
アポ ロ
ポ テン
引き 締
LI GHT
分 冊
対 岸
町 制
アリ ゾナ
ね っとり
全 盛
iel d
フライン グ
門 司
A f
共 済
演 歌
貼り 付け
水 源
大 泉
引っ 張り
do como
持 てる
飛 車
望 ま
生 殖
養 殖
17 9
V HS
貸 す
ニ シ
キュ ラ
エタ ノール
アル ティ
初 等
コ ッ
ル ノー
元 来
減 速
懲 戒
憂 鬱
オペ レーター
キ ョ
水 深
T AL
共 闘
カー ナビ
it le
オヤ ジ
ファイ ヤー
貸 付
真っ 赤
容 認
ミ ディアム
開 場
町 域
パン スト
) ]
並 べる
アー バン
SE T
長 尾
チャイ ナ
摂 津
ッ サー
ディ レクト
言い 訳
ate g
Le ather
c ent
中 井
m icro
ボ ンド
たく り
チャー ミング
е р
ケ ント
富 岡
アミ ューズ
ディ スコ
ケ ニア
分 断
おこ し
堤 防
L ou
ガ ブリ
風 船
22 2
ダイ ジェスト
ハー ゲン
重 症
ch ar
松 永
習 っ
l ive
変 色
付き 合う
レ ロ
半 減
もの づくり
偏 見
初 級
l ife
著 しい
鉄 砲
文 春
80 2
法 華
NI KE
過ご せる
リ サ
家 出
散 り
ain t
ik a
G RO
ス モール
ワ ザ
過ご せ
K IN
冷 め
名 声
から だ
ジャ ス
RAD IO
Serv ice
大 洋
日 誌
通 告
クリス ティ
武 藤
ス ワン
SU MM
サ ハ
ap hy
放 し
チュー ニング
W R
模 倣
超 絶
end o
y out
会 派
バ ビ
準 じ
ロ マ
文 脈
断 片
筋 力
ワン ピ
写 本
20 7
よ 〜
el y
ヴィ ラ
塗り 替え
下 痢
つく し
小 平
さん ま
大 通り
頼 朝
トレ イル
許 す
脱 落
ear ch
補 足
ヶ 岳
留 まり
鬼 太郎
ト ックス
スカ パー
ア ジャ
ル ース
発 色
スペ クトル
陽 性
ニュ アンス
部 数
ふし ぎ
D K
侯 爵
即 納
レ ック
サン ゴ
御 前
ユー ティ
W G
ヴィ ッチ
河 北
精 製
電 信
キム ・
は っ
安 置
こぼ れ
カ オス
語 尾
アル ビ
Se ason
ゲ ゲ
話 せ
・ ラ
器 官
アムステル ダム
Cent er
親 しい
くる ま
F un
偽 り
ア ロー
ad idas
乏 しい
伝 授
油 断
還 暦
児 玉
官 能
築 く
our ce
マ ドンナ
反 抗
クタ ール
南 国
デジ カメ
エ ウ
怪 談
採 っ
心 斎
涼 しく
取り 除く
岩 井
アイ デン
ム ル
リ グ
手 洗い
L and
山 々
葛 藤
が かっ
大 夫
辛 く
選 曲
鳴 門
L uc
Th om
一 途
牟 田
親 父
常 駐
A ST
混 在
っこ り
冊 数
鳩 山
ィ ー
パ ネ
ソ ク
激 化
す ま
い し
オ ッズ
ナ ンス
人 件
平 家
店 名
on es
脱 ぎ
産 出
かん たん
C le
F in
ペ テル
盗 み
ク ッ
励 まし
傷 害
2 12
上 着
足 首
ば る
系 図
負 ける
健 太郎
ガー デ
リ ラク
初 夏
溜 まり
ウェ イン
f ig
R et
as y
フレー バー
阿弥 陀
ア ブラ
収 蔵
ベン ツ
S n
ヨ ハネ
アン ディ
脳 内
桑 名
海 鮮
ビル ボード
島 原
マニ ラ
果 汁
B ur
コ スタ
重 み
カウント ダウン
留 意
ラグ ジュ
難 点
セ プ
ハワイ アン
年 月
浪 人
公 論
操 業
N K
u ter
攻 防
ラン ブル
た ー
携 行
樺 太
残 酷
混 入
18 6
狂 っ
持ち 上げ
ブ ランク
アイス ランド
売 店
松 阪
降り る
傾 け
ク エン
佐 竹
R U
去 ら
アレクサンド ル
M aster
度 合い
WOW OW
ペプチ ド
ス プリント
ポル シェ
W BA
中 級
停 滞
武 家
g i
撤 廃
水 島
モノ レール
S witch
30 2
ラル ド
掴 ん
渡 航
o or
BE AT
見 知り
のぞ み
テ クス
信 徒
ハン デ
ハンド バッグ
見 直す
共 作
神 父
な ま
アン カー
ユ タ
日 差し
イント ロ
よし もと
シ フォン
増 進
突 出
処 罰
レ ガ
W ay
め っ
星 空
鋳 造
値 下げ
行 ない
セイ バー
襲 名
レ グ
歯 磨き
マネ ージ
5 10
機 銃
魅 せ
吸 っ
軽 快
麻 呂
スタ ッド
パ イン
防 備
瞬 時
H ow
er ation
N ov
e ed
ト ピ
ot e
退 去
in formation
っち ゅう
マ フィア
源 流
ann el
:: ::
晋 三
ミシ ガン
スポ ー
精 通
チュ アル
ニ ート
強 大
紫 色
芥 川
帰 属
松 村
魔 神
v ersion
ガイド ブック
最 善
翌 月
スペ ン
D oc
カ リスト
よ ら
失 格
ブ ツ
す みれ
母 艦
合 弁
ステア リング
ヘ クタール
宮 田
ジャン ボ
m ark
マ ティ
筐 体
is on
aw ai
ケ ミ
先 着
疾 病
三十 路
ri p
ア デ
ハ ザード
フェ リ
ラブ ホ
H ouse
古 今
恭 子
US CO
心斎 橋
大 差
治 る
提 督
Ab ema
媒 介
f a
B RE
死 神
争 っ
ニュ ージャ
部 類
下北 沢
DE L
六 十
囚 人
or ies
口 臭
吟 味
ケン カ
一 向
摂 る
オ ・
建 っ
us er
とど め
TP P
ム ハンマド
加 湿
S AN
散 々
流 石
阿 久
難 う
ポピュ ラー
送 金
没 収
T EN
深 川
被 る
伝 導
共 鳴
津 島
フリー ト
ハイン リヒ
なお かつ
く う
パラ リンピック
ミ レ
聖 職
ラグジュ アリー
心 情
デ イト
レ ボ
コント ラスト
ク ランク
積み 木
向き 合う
広 々
良 品
一 段
再 選
封 鎖
アル テ
丸 の内
強 固
シ ノ
カ ント
探 求
エン ブレム
魚 類
半 田
矢 部
フラン チャ
売 春
平 山
連 装
州 道
前 髪
土 浦
う み
叫 ん
めざ し
夜 勤
欠 ける
COL OR
シ ク
ミ クロ
毛 髪
スロー ガン
F B
タ ヌ
馬 身
D T
翻 弄
さ とう
愛 子
ド ックス
春 季
深 み
子 女
夜 景
スピ リ
パナ マ
常 任
聴 覚
サイ モン
な べ
和 名
アン ソロジー
S and
尻 尾
築 か
F ate
e i
アンド リュー
半 期
廃 業
狭 山
褒 美
越 谷
的 中
持ち 物
エ コー
食 わ
収 束
ミリ メートル
界 隈
ハイ ウェイ
KE T
短 歌
とど まら
桃 太郎
誘 発
R oy
先 ず
各 自
スター リン
本 殿
バー スト
p a
直 流
め く
あん た
水 溶
ジェイ ムズ
ね り
メイ キング
v in
ゼク ティブ
取り 込ん
接 合
ハ ク
団 子
夢 見
胸 元
BB Q
z o
村 人
称 賛
郡 庁
ス コープ
増や せる
ほ しく
粘 り
リ リー
陸 地
end er
軟 式
乗り 込ん
語 彙
取り 巻く
n s
ハ シ
芦 屋
防 護
持ち 合わせ
苦 笑
ェ ン
ポップ ス
クリスト ファー
三 国
推 計
代 数
__ __
や せ
K a
戦 法
男 児
手 本
牛 革
有楽 町
あ こ
ang u
キ ョウ
30 3
古 田
ard en
コーチ ング
連 中
八 尾
D MM
均 衡
V EN
Comp any
デイ ヴィッド
繋 ぐ
贈 与
畳 み
清 算
ハー バー
エ サ
了 解
本 舗
j e
L TE
見 守っ
取り 消し
am azon
ファント ム
計 量
明 白
9 40
エ チオ
冷 戦
粘 着
an i
グ ア
ブリ ティッシュ
公 示
坂 上
ガ ミ
万 博
採 集
24 5
E MI
沈 ん
インディア ナ
ルネ サンス
五 島
教 職員
シ ズム
村 立
咲 か
とき めき
Ad obe
OKA WA
州 都
m ed
熱 血
Int el
G ar
時 速
長 浜
エステ ル
い り
L ist
R B
クラ ウ
カ フ
和 夫
d ate
承 っ
うる さい
L ow
はて な
W AR
ジ オン
ぶっ かけ
し る
浩 二
M id
逃 れる
に こ
た の
登 用
du ction
ニュージャ ージー
it o
D ance
成 す
愛 撫
s w
カ マ
垣 間
バス ク
ad o
断 然
00 2
盗 賊
遺 物
かね て
旺 盛
B LO
北 山
堕 ち
サン シャイン
Ex press
フランチャ イズ
振 替
獲 物
ジェ ーン
ag o
ブ イ
ボンネル コイルマットレス
議 決
転 身
呈 し
Eng ine
亜 種
コメン テーター
原 動
本 島
水 質
遠 山
崇 拝
とら われ
ニ コン
L ondon
建 つ
微 分
J S
L G
もら わ
ぺ ん
引っ 張っ
ナン シャル
ッ フル
極 度
宛 て
横 田
о л
レディ ー
Jour nal
山 間
東 郷
ドライ ヤー
AR Y
借 入れ
KAD OKAWA
チャ ク
F irst
いわ く
奥 州
公 営
賞 与
O A
数 える
ト リア
不 問
ティ ラ
ブロ ガー
ソリ ッド
先 物
那 珂
トゥ ール
映 っ
蒸 留
飛び 込ん
国 税
at su
バニ ラ
サ ール
弾 道
派 閥
辺 境
マケ ドニア
頼 ら
KD DI
7 80
ケ ロ
沼 田
ヘル シー
ジャン ク
b as
本 庄
コレ ステロール
脊 椎
四 川
請 負
漁 師
くわ く
イ ージー
オペ レーション
下 山
ro s
コンビニ エンス
一 挙
旅 人
Inter net
ar s
Inst it
高 砂
EX ILE
却 下
長 身
バ ロック
今 川
大 砲
叩 か
騒 が
プロ テイン
古 本
ネ ード
覗 き
マ スタ
官 位
空 腹
西 条
た き
わ くわく
仲 良し
L ast
二 子
コロ ラド
B aby
全 高
S a
ディレクト リ
フィー チャー
H IT
ば れ
削 っ
閉 校
故 人
テロ ップ
商 法
置き 場
グレー プ
her e
Day s
K en
均 等
売り 切れ
レ ミ
沸 騰
フ ク
エチオ ピア
棚 板
AT H
ビー フ
逆 襲
思い 込み
ム ック
マ タニティ
発 端
唐 津
目 前
繁 華
治 郎
ブロード ウェイ
え ー
彦 根
刑 法
ユニ セックス
月 収
叶 える
ri e
ぞ く
史 実
架 け
西 経
羞 恥
酒 場
なく す
24 00
TR USCO
ご っ
リオ ール
豊 後
ネー ミング
松 坂
リ タイア
導 か
az ine
女 児
試 練
クー バー
地 主
曲 がり
コン ソール
ユニ クロ
喘 息
接 点
敬 老
ブルック リン
um b
B al
閣 議
こ え
人 参
重 心
国 交
ロ ム
執 着
借り れる
震 度
ピ コ
生き 残り
9 25
悪 意
コン チ
同 情
強 姦
後 続
コース ター
レ ッツ
満 員
C Y
対 外
MA G
っぴ り
ا ل
浮 遊
口 癖
食 塩
k ot
E OS
リ ベン
N U
H a
ただ いま
w ood
VER S
ピ チ
ペ ス
結 核
思い やり
腐 敗
混 み
発 進
キャピ タル
大 竹
プ エ
なん ば
浜 崎
F est
プロ ペラ
立ち 寄り
リ ニア
身 内
サク サク
Wh at
胸 部
財 源
ブラ ジャー
22 6
無 印
門 前
ほ ら
J T
ラ ビア
特 大
終 焉
にん にく
巡 査
防 い
絶 叫
ほ ろ
ゆ ら
三 鷹
地 価
わき が
バン タム
リエ ット
エグ ゼクティブ
室 蘭
布 施
ant s
テロ リスト
強 風
闘 士
ダ ビ
主 教
甘 え
SS D
ウィキ ペディア
C ook
新 羅
R ain
今 更
国 府
フィ ッシング
ふん だん
�� ��
未 婚
ミ ート
定 例
ティー ナ
Og ura
甲 状
磐 田
ヴ ル
木 工
クラ ク
無 形
基 督
ic es
キング ス
充 て
幼 虫
桜 木
知 子
線 形
R un
控 える
P y
次 ぎ
同 好
バン クーバー
因 果
出 家
思 惑
Rem ix
庄 内
活 字
業 態
バル カン
亡く なり
F ight
亜 美
湿 地
AR I
R R
t or
捕 まえ
現 物
スティー ヴ
n ess
ば ね
働 ける
オブ ・
Ser ies
しか た
固 まっ
菊 地
コン ド
合 え
和 彦
ジ ウム
グラ デーション
他 店
カン ザス
ージャ ス
広 州
it em
保 留
貼 る
諜 報
J u
ラ バ
鶏 肉
セ ブ
Gal axy
増 額
シャン パン
力 強い
短 大
L GB
あ ご
魔 導
京 急
ハド ソン
月 々
or ge
委 任
濃 縮
18 64
春日 井
ほ く
鳴 る
ホ ステル
ちょ っぴり
BO Y
G ON
さと み
スティー ヴン
並 列
ミニ ゲーム
あ かね
モニタ リング
ソフト ボール
モニ カ
L AND
申し 立て
増 毛
ul a
偽 造
探 知
ステ ッチ
33 3
B UR
同 棲
エステ ティック
刷 新
襲 う
Engl ish
校 内
O ly
毒 性
陳 列
c ap
u el
ドライ バ
ベイ ビー
シュ ウ
給 油
レバ ノン
見せ つけ
) "
ダ リング
祖 国
ワル ツ
フラ グ
幅 広
面 々
赤 み
レ ポーター
加 古川
メラ ニン
立 命
争 奪
挿 し
産 物
ホッ と
三 陸
迂 回
つ かっ
フレンド リー
D ark
加 水
it z
Q R
中 傷
託 し
オ アシ
ro om
ガーデ ニング
5 12
Sou l
サイ レント
一 式
H U
帝 王
SON Y
ペ ドロ
頂 戴
プラン ニング
o de
執 拗
間 違
ケン ブリッジ
相応 しい
良 けれ
島 式
チェ アー
c at
ID S
Y ES
レ ノ
早 急
大 麻
杉 田
半 日
養 老
木 場
簡 素
は だ
インター フェイス
クレ ヨン
無く なり
H G
商 船
また また
南北 朝
フェ ロー
スペシャ リスト
貼 ら
X D
おも い
w as
カル ロ
九 郎
伝 送
ペナル ティ
H ideo
気 付く
ad on
ジ ーク
マ ギ
一 揆
吉 原
発 毛
20 9
ナ ンド
書 紀
客 席
腕 前
エメラ ルド
党 派
キネ マ
地 表
泳 ぎ
治 し
ヨ ット
猛 烈
マイ スター
SPOR TS
向 井
チャ リティー
詰 まり
2 16
到 底
雑 談
残 ら
聴 か
隔 離
コロ コロ
RECOR DS
下 駄
N ik
W O
じ つ
噴 出
部 落
ど い
リン ダ
塚 本
貝 塚
末 裔
横 幅
Fi ref
い も
O per
オ ットー
叩 く
投 影
施 す
就 寝
m ph
わん さか
随 所
伊勢 崎
レズ ビアン
総 統
アルバ ート
同 調
こ つ
バ ール
以 南
肉 食
オ デ
バート ン
19 1
隆 盛
困 惑
フュー チャー
弾 く
最 良
24 6
9 90
ト ッピング
人 道
千 住
窮 地
野 々
量 販
ra w
E G
堀 川
電 報
ダ ラス
擁 する
フェイ シャル
W WE
ヘル プ
カタ ルーニャ
oll ow
b re
新 宮
H en
R om
廉 価
明 言
25 3
卓 上
G DP
EC E
キン 肉
コロ ニー
B it
協 働
後 々
B rown
コミュニ ティー
サウ ジア
a ff
40 6
GO OD
血 統
アン ソニー
18 50
Net work
b on
車 載
ト リス
寂 し
燃 える
moto ken
分 化
You tube
id ent
鍛 冶
平 地
ヒ カル
公 職
引き 継ぐ
c or
ニ アン
ディ ッシュ
b ut
開 園
左 腕
決 闘
ジェーム ス
ノ ズル
・ カ
ト ゲ
人 前
津 川
te xt
Un ited
し あわせ
目 元
マル シェ
ケ ラ
洋 食
放 浪
築 城
モン ク
勝 敗
ジョ ギング
Col or
忘 年
取り 立て
ad s
c re
エレクトロニ クス
王 族
23 2
甚 大
イ ース
ond er
ミ シン
弦 楽
敬 遠
辞 める
ライ ザー
g g
最 盛
田 代
ぷ よ
断 絶
レン ツェ
カスタ マー
流 体
筑 紫
大 樹
激 戦
く ず
光 文
スタ メン
al a
スタート アップ
が ね
墨 出し
ブ レッド
変 装
山 麓
持ち 込む
防 空
デュ エル
胃 腸
高 台
持ち 出し
盗 ま
念 頭
r or
贈 答
送 電
対 人
と し
LE X
出来 上がり
フレ デリック
モ ット
倒 壊
広 義
CH AN
de v
悲 鳴
ri er
母 国
J ust
ス ナイ
貸 与
ou ld
長 澤
oo oo
代 打
大 平
W il
S ide
シ ンド
製 紙
スピ リッツ
太 守
注 力
布 告
キ エフ
成り 立っ
学 制
入 間
小 鳥
スペル マ
アウグ スト
St reet
あ た
グ ナー
使い 捨て
ヒ ド
宮 沢
別 人
せ れ
紛 れ
進 水
シュ ト
暗 示
イン スタント
ジョ ナ
反 り
騙 し
か ばん
切 符
遂 げる
ハ プ
大 映
G er
諸 説
多 賀
泌 尿
J UN
リ クライ
オリ オン
あず さ
w in
豊 岡
クル ス
サウジア ラビア
N AV
18 62
パン ティ
披露 目
枚 方
18 67
o se
バ トン
解 い
ゥ ス
エ ニックス
両 社
同 誌
更 津
木 更津
こま め
なお し
私 鉄
M ult
ラ ブラ
ラ ケット
太 宰
末 端
坂 田
〜 〜
様 相
原 色
必 至
新 党
ま わし
む し
壁 掛け
Su ica
塩 素
B OR
19 3
慕 容
宿 題
Associ ation
高 尾
C ard
ヘルス ケア
オ ウム
座 敷
持 株
um an
レー ツ
送り 出し
ハ ッシュ
代 償
c ur
閉 館
呆 れ
岩 国
進 捗
V F
ワ ト
文 具
ザー ブ
城 壁
実 録
グラン ト
乗り 場
活 気
気 質
ヘッド ホン
が さ
亀 田
廻 り
か げ
リ ピーター
国 政
産 駒
Java Script
W P
シ ティー
散 布
ベートー ヴェン
洋 式
草 原
ウィン ター
や い
木 星
ふ き
汽 船
高 円
2 18
見 い
t ar
故 意
赤 羽
コ コロ
ゴ ージャス
AD E
ゴー グル
リクライ ニング
連 行
立 方
ens is
上 水
手 口
取り 上げる
蔵 書
低 音
ic ht
森 山
オー ソ
秋 季
コンプ リート
H el
備 前
クラ イン
A ut
ヤ キ
K it
出 羽
た かし
め んど
養 父
30 6
ネン タル
龍 馬
COL LECTION
グ ラー
リーダー シップ
グー グル
渡 部
留 置
の け
ぼ り
赤 軍
魅 惑
雇 い
un it
os a
沢 田
チ ルド
ミニ チュア
揃 える
歌 人
美 貌
金 星
新 城
k in
毛 布
Sp ace
更 年
M IC
産 ん
Sil ver
純 情
旭 日
街 並み
ON LINE
ir d
反 則
乗 馬
レッ タ
使 節
SUMM ER
偏 差
川 端
U nd
装 い
】 -
入り 込ん
ソ タ
ルート ヴィヒ
" 、
リ ハー
南 朝
レビ トラ
コン ゴ
レイ ド
覆 い
インター ホン
休 刊
淡 水
T re
а н
・ エ
鍛 える
N B
P AN
オ クラ
下 降
わ せ
代 子
税 制
Br and
外 相
ストリー ミング
役 立て
気 仙
寒 冷
真 央
経 年
自 伝
荒 廃
プロト タイプ
亡 人
未 亡人
暫 く
u a
混 じっ
商 材
18 63
東 名
登 壇
キング ダム
op le
R ub
実 効
曲 がっ
テン ベルク
セ クター
産 卵
川 田
フォ ア
ロ ート
下 級
倍 増
AD A
不 備
隠 蔽
白 書
PV C
Firef ox
メ ト
ラス ベガス
ジャイ アント
一 因
券 売
証 書
シュ ール
J AS
de p
競 泳
空 白
WH ITE
R el
タ リア
ジュ ラ
ヶ 国
健 在
付 帯
北 端
講 和
め し
ボ コ
頑 固
生 没年
ボ ヘ
ひ さし
開 講
基 部
リハー サル
w ill
貯 蓄
カー ニバル
滞 納
ネ リ
リベン ジ
ぞ ろ
ヤ ス
模 擬
異 議
即 時
さら ば
ナビゲ ーター
f i
ニコ ライ
く す
名 残
NO W
ナ ント
賢 治
BO DY
3 15
休 む
迫 り
買い 替え
コンピ レーション
暗 闇
消 息
オアシ ス
ail s
進 軍
w ifi
ゲ ツ
河 出
配 し
Sp orts
ゴ ア
一 躍
造 営
親 指
w i
☆ ★
献 立
三 上
左 派
ハイ ドロ
佐 々
事 変
因 み
学 研
連 立
ジェイ ソン
ぷ る
浦 安
細 やか
キャッチ フレーズ
F er
川 西
ich i
彼 方
足 跡
見 立て
敷 い
本 年
ゾ イド
コンチ ネンタル
B et
エ ボ
つば さ
ドー ナツ
T ur
女 房
視 認
OK U
新 制
バイ キング
H APP
g an
封 筒
プロ パティ
アラス カ
ヒ ッ
葛 西
宝 島
腐 食
節 目
積 雪
綴 っ
歯 車
マニア ック
・ マ
北 軍
讃 岐
A k
е н
完 走
矢 理
賛 否
無理 矢理
正 午
金 魚
フラ ップ
ど ー
載 せる
送 れ
小 杉
組み 込ん
アクティ ビティ
C IA
万 一
上 川
奇 襲
逝 去
悪 夢
上 段
煙 突
Pro gram
av en
直 列
クリ エーション
締め く
ファ ラ
あ ま
イン スタンス
和 紙
パーソナ リティー
AN O
乾 い
預 言
仏 像
唾 液
明日 香
サ ガ
GIR LS
ウィ ズ
t re
ポ ッ
ポテン シャル
イ ジ
18 65
イ ック
iz ation
シンセ サイ
in ce
Bl og
ペテル ブルク
ペン タ
日の 出
ヤ ーズ
pro cess
贈 っ
鉱 業
テネ シー
バ ロン
im ent
邪 気
ゴ ラ
帯 域
旨 み
筑 後
羽 目
もの まね
本 間
6 10
任 せる
扶 養
取り 込み
ジュ ネー
狂 気
出 掛け
節 句
Nor th
お んな
涼 しい
下 回る
26 4
s i
シ ム
リア ーズ
J B
教 訓
ほ り
篠 田
パ トロール
相 方
呼び 名
旧 暦
洋 楽
ネル ソン
そ っと
南 下
目 隠し
卑 猥
窃 盗
ケル ン
ナビゲ ーション
2 13
B ay
生き 延び
内 心
柏 木
聖 子
] :
ブ レン
マ ダム
浅 間
走 れ
充 填
生 計
DO WN
mm F
城 山
稲 垣
絶 縁
ゼ ラ
粘 膜
長 め
宰 相
パン ケーキ
PO WER
引き 下げ
エンタ メ
ネ ーズ
富 裕
行 程
T AYA
ウォル ター
あ いつ
GIR L
あ お
オン ライン
潤 滑
H al
大 同
セレ モニー
d own
堀 内
関 口
フランク リン
即 ち
触 手
ER A
7 40
万 葉
ひと とき
自 発
On line
w ind
ペ トロ
昇 給
土 井
用 事
ジュ リア
ア ストロ
臨 場
新 庄
ハ ニ
サンド イッチ
オト ナ
B on
成 瀬
江 南
沙 織
真 摯
ロ ベルト
18 30
L B
長 田
サンディ エゴ
村 長
菩 提
つ っ
クルー ゼ
三 脚
つ と
バ ツ
伐 採
AN B
KE Y
老 い
着 任
ウィ ッグ
ア キラ
わり と
おかし な
\ (^
ら ぶ
絶 好
F NS
園 内
う じ
拭 い
疑 う
大 声
ビ リティ
スティー ブン
献 上
きっ ぷ
ミネ ソタ
Be aut
F ACE
u z
犬 種
迷 彩
ist r
凝 っ
転 入
N ATO
卓 越
クラ スター
ッカー ズ
ペ リー
林 業
触 る
23 1
パ ブ
ハン ディ
ニッ ケル
サ ザ
V AN
u ch
何 百
デザイナー ズ
乗 ら
インタ フェース
ソ フ
打 倒
田 町
al y
u le
L F
ラ メ
タック ル
しょ っちゅう
扮 し
et te
ウェル ター
吹 雪
C as
以 っ
退 け
教え 子
9 20
ダ ミ
察 知
悪 役
見 据え
被 爆
F BI
納 車
スリ ランカ
温 室
週 替わり
クス ピア
B ut
畜 産
紀 州
TSU TAYA
アベ ニュー
W r
---------------- --------
P EN
召 集
フリー ス
け が
イ ニング
彷 彿
来 月
鳴 らし
フィ レンツェ
カザ フ
幸 子
祝 儀
アル マ
ブラ ス
み の
保 た
裏 切ら
学 業
ラ ベンダー
ミシ シッ
発 案
ショ コラ
墓 所
霊 場
n ame
直 下
あ ざ
ペ イン
砲 弾
エク ストラ
胞 子
l b
ヤ フ
突 か
27 5
マカ オ
ボイ ラー
not e
調 印
鳥 栖
つ づけ
用 法
移 送
U KE
刺 史
多 野
描 画
ジ マ
プロ グ
ハウ ジング
水 害
S ub
改 める
ニ ウス
解 凍
R D
ラン ジェリー
Mod el
ぬ く
BA BY
サン ローラン
リ プレイ
ent ry
C ast
大 敗
ちん ぽ
真 希
荒 野
18 66
5 30
乗 船
規 程
風 潮
ポ ラ
即 効
岡 部
プロ パン
画 策
バス ルーム
ヴァ ルト
小 原
やす み
ド バイ
盛り 込ん
and er
レ ベ
チョ ーク
A O
メ ート
Par is
チ ノ
放 火
試 着
領 有
公 団
許 諾
el d
E p
u j
反 逆
義 経
迫 害
な じ
B y
c r
食 っ
ファイ ナンス
振り 回さ
手 っ
仕 込み
打 診
剣 術
0 90
か せる
戻 れ
マ リーン
辛 子
ゴ ッ
it or
UN T
2 14
ワ フ
整 骨
インフォ メーション
ノン フィクション
ap er
極 楽
い らし
Al bum
g t
た がる
関 ヶ原
デュ エット
ce pt
即 興
西 欧
藤 村
苫 小牧
若 狭
白 黒
雅 子
悪 用
齋 藤
引き 起こさ
信 玄
根 岸
常 盤
砂 浜
リア リティ
AI L
ご っこ
ダ ニー
自 閉
手っ 取り
ふ か
Y ear
ツ ム
昼 寝
H ERO
ネ ロ
ポリ マー
下ろ す
敦 賀
荒 井
舞 踏
間 口
オ セ
漏 らし
金 券
立ち 上がり
OR Y
レ ッグ
18 61
セン チュ
LI X
ベー シスト
おっしゃ っ
漏 洩
3 24
E B
ハ タ
茶 道
情 緒
き び
グ ロス
ソ ルト
エスト ニア
グラフィ ックス
6 30
コ ロッ
ロー テーション
は み
マ メ
グル ジア
売 場
文 科
じ っと
前 項
書き 換え
サウ ナ
タイム リー
福 利
海 運
曲 目
森 下
解 読
ノ ワール
ad em
オ ット
病 死
福 知
トロ フィー
恥 じ
イ シ
深 海
クリー ク
i que
ナ ッシュ
減 量
来 訪
ンス キー
メ ドレー
D ou
こ ー
概 算
豆 乳
SP F
ラ オス
元 老
21 00
u f
ク ロン
チ ロ
テ ッ
言 論
寺 社
ST E
マテ リアル
要 約
ライ ク
シンセサイ ザー
水 栓
ソ ス
ホー プ
撮 ら
ライ カ
ふっ くら
梨 香
町 立
プラ ネット
愚 痴
緒 方
8 60
ほ し
路 地
歩 ん
プラ ノ
C AM
ぎ ん
対 等
トゥ ル
飽 和
トリ ップ
De NA
オ ワ
組 長
25 2
地 雷
多 量
ブック マーク
県 外
man n
ヒ ョ
OS S
リ ケ
何 卒
嘉 永
団 結
破 ら
ちょ く
満 々
amp le
Q UE
す こし
定 か
ザ キ
F ar
k n
千 鳥
骨 董
バン パー
とっ かえ
花 びら
it er
p at
小 金井
援 軍
よ け
I W
沈 着
ゴル ファー
オス カー
大 将軍
エレクト ロ
ミュ エル
さ つま
まつ げ
下 る
ヘッド ライト
見 知ら
里 見
うる おい
ば く
h p
ギ ラ
重 たい
ラー ニング
m obile
ナ イル
同 然
和 牛
大 雪
見 習い
STU DIO
スラ ッシュ
6 20
n ov
K R
m ay
溶 解
ピク セル
降 臨
すぐ さま
エナ メル
人 手
損 保
火 薬
竹 中
遡 る
結び つき
フィル ハーモニー
H IG
三 越
曹 操
クラ リネット
T or
七 十
三 味
反 復
撃 つ
社 殿
ホ スピ
区 切り
大 金
カー キ
結 社
見 守る
関 根
十 勝
母 方
知り 合える
乱 入
栄 誉
H all
明 和
福知 山
知 覚
耐 える
溶 岩
よ ん
宿 舎
小 浜
政 宗
モ イ
花 束
サ メ
競 り
グ アム
刃 物
勤 労
官 邸
障 壁
ac c
す げ
込 もう
23 3
f ess
ザ ース
油 圧
シ シ
百 済
ガウ チョ
フ アン
人 的
賞 品
森 本
消 極
被 写
== ==
は なし
選 任
ゆ か
賢 く
H u
ペ ニ
上 尾
前 衛
滝 川
F ly
att le
ぐ い
抜け 出し
エ リス
惹 き
イ オ
ビ ビ
サン クト
スティ ール
発 令
ヌ ール
称 え
k cal
ロボ ロ
オレ ゴン
固 い
ティ クス
だ まし
助 演
桑 原
ロフ スキー
平 ら
飯 島
Cor por
復 縁
苗 字
Res earch
大 岡
寛 文
シュ トラ
切 除
ハン ズ
ト ッ
忙 し
ビル マ
S et
ア ドルフ
蜘 蛛
諦 める
スペ クト
熱 意
b b
健 二
房 総
G D
ヒ マ
PI ECE
一 騎
ん で
対 価
A WS
掘 削
プロ ピ
ス チーム
中 元
陶 芸
ステ ート
パ ター
ヴュ ル
end s
ミ ハ
不 祥
南 軍
情 け
バレン シア
小 町
IDOL M
独 創
賢 い
か あ
探 り
王 宮
ag a
かす み
テ ア
バ レル
天 ぷら
モント リオール
A UT
セ ネ
秀 夫
ナ ール
サン プリング
40 1
綾 子
天 理
com e
ジェン ダー
ウズ ベ
声 楽
遭 難
パ ジャマ
立ち 向かう
ぶ き
ウィ ック
スロ バキア
8 10
剃 り
母 校
製 剤
ダン ロップ
TY PE
ボ ロボロ
大 連
谷 間
ー っと
君 臨
天 守
ア ドル
活 かす
at ure
奔 走
貴 女
ell ow
潜 伏
見 分け
H am
トレー ラー
ニン ニク
ヒ ム
陣 地
t t
直 射
祀 ら
Mo on
ト レッ
豪 快
プ キン
V ocal
商 学
延 々
ディ テール
フォー マー
L es
e v
あ たか
あたか も
竜 王
ウマ チ
ひ がし
態 勢
P OL
P TA
アー モンド
マル タ
p op
ナル ト
サ ミュエル
ージ ョ
こう とう
サ カイ
厳 重
コンビ ネーション
S ER
岩 石
賀 茂
レディ ス
O EM
セ バス
le ase
Fi le
青 島
pp ort
失 脚
B a
剣 士
あす か
資 質
全 幅
嫌 う
両 開き
ブレイ ド
レ パート
ch er
サタ デー
L ov
本 松
せ り
親 密
ダ グ
H or
年 式
揃 う
ウォ ッシュ
ヘ タ
サ ニー
越 す
ヘ ブライ
リ ズ
個 数
キ チ
心 筋
カー ター
支 度
飲 める
C amp
St ory
ツァ ー
T ak
к а
喋 り
Ch rome
int endo
T F
V II
年 俸
いす ゞ
前 立
節 電
お まえ
7 70
お ぼ
演 目
fun ction
刈 谷
高 瀬
効き 目
更 生
金 賞
主 翼
出 金
銀 色
De v
uk e
塩 分
Dig ital
円 筒
講 堂
天 台
ky o
K n
旨 味
co de
d ie
ッ ケン
デ シュ
ユーティ リティ
髪 飾り
バ ファ
ハンド ボール
時 短
F rom
今 期
スタ ック
ジョー カー
公 使
救 世
さら っ
巻き 込ん
フェ ノール
IT A
感 銘
o om
き ち
快 く
ひっ かえ
病 原
ぎ っ
納 付
胎 児
自 走
テ トラ
B W
極 秘
浅 田
風 習
乳 液
蒲 田
懇 願
渡 米
B RO
刀 剣
千 尋
モ ータ
伺 っ
比べ れ
接 待
AT ER
風 力
TO R
ト ピック
人 造
組 曲
マ シュ
HI RO
一 筋
本 性
蒸 発
掻 き
ヴェ スト
ータ ン
由紀 夫
う り
伯 父
表 向き
黒 字
テイル ズ
乗 れ
病 床
フィ ッシャー
有 給
海 苔
D em
d ro
インス リン
祝 う
公 判
タ ロット
結 集
l ab
勘 定
h ot
金 貨
エ イズ
体 勢
着 信
野 獣
絵 師
ア ゼル
下 さる
出 航
函 数
失 調
持ち 込ま
コンスタン ティ
夕 張
こ じ
N intendo
r m
は たら
剥 奪
恋 心
愛 宕
p ut
き のこ
ミズ ーリ
ぼっ たくり
H B
サ ファイア
入 江
ヘル パー
ノ ベ
両 腕
死 傷
旧 姓
th on
マ ッカー
2 17
E Z
レパート リー
d om
エ イド
V M
魚 沼
ギ ミック
ダ ナ
白 金
A z
ヨー ゼフ
多 角
幕 内
em b
シ コ
J AC
ゲ ノム
話 者
き ゅ
腹 筋
リー タ
ラン チャー
22 3
リラク ゼーション
タ モリ
ビ ウス
汲 み
バー ツ
引き 渡し
仕 掛ける
F K
モン キー
仕 上げる
有 能
モー ガン
左 岸
S on
一 心
度 数
クォ ーツ
歪 ん
イン フレ
スピー ディー
ニ クス
脊 髄
失 望
点 火
間 際
ゾ ル
暖 か
疑 っ
着 ぐるみ
x y
アク シ
嵯 峨
ウィ ザード
St age
HAPP Y
ガイ モ
ン コ
丸 み
T L
密 集
E ast
食 後
オオ カミ
ご たえ
ア タッチ
建 材
防 音
火 器
バ カラ
ジャ ニ
怒 る
風 貌
ボス ニア
ス カン
ハプ ニング
表 皮
野 中
ファイ アー
アルバ ニア
出 陣
特 注
取り 出す
兄 貴
おい しかっ
ナー ゼ
刻 ん
坂 道
水 没
賑 わい
Y OS
中 居
ズ ス
本 命
Euro pe
H OP
h and
水 木
リベ ラル
トゥ ス
アンド ロイド
リ ウマチ
か ぎり
引 数
出 自
BO YS
マネージ メント
ル ドルフ
大 槻
c ript
ダ レ
絡 む
ホ コリ
レ シー
異 母
OR I
for ce
が う
半 球
安 達
引 出し
父 子
細 長い
秒 間
カー ネル
ran ge
p age
77 7
夏 祭り
の し
で かけ
む り
広 範
チュ ード
任 官
ing ton
ん 坊
ア ザ
小 銃
因 縁
早 漏
キ ョー
大 破
続 か
太 一
活 力
on line
Ex pl
c ell
ソ プラノ
遊 歩
Q ue
光 明
ま う
K ids
信 条
け んど
本 学
V U
ク ズ
ポ カ
令 嬢
和 式
For ce
OK O
掛 川
ST A
SK Y
0 10
ココ ナッツ
r ich
シェイ クスピア
幅 員
香 織
Off icial
和 ら
感 知
北 海
麻 美
ギャ ラ
ボルド ー
勝 てる
Jo se
山 野
隣 人
積み 上げ
バッファ ロー
3 25
ウォール ナット
g ood
多 汗
れ よう
授 賞
ニ ワ
四 球
湧 い
クオー ツ
杉 浦
al th
s ing
い ふ
利 回り
抱き しめ
在 職
銚 子
サー ズ
S AM
st or
かわ いく
み か
ア ガ
京 橋
Champ ion
敷 居
覆 っ
異 端
リー ヌ
惣 菜
22 7
外 貨
ソー セージ
無 機
交 友
彩 色
微 細
玉 ねぎ
スペン サー
懇 談
口 頭
甲 州
適 性
ニュ ート
終 日
引き 締め
TR I
はめ 撮り
メ グ
in es
] ,
隔 て
柏 原
雇 わ
取り 締
赤 城
思い つい
勝ち 点
キャバ 嬢
嫡 男
車 道
ミシシッ ピ
尽く さ
一 変
名 護
痛 感
ブック レット
あ ぁ
ヘ ッセン
云 々
l m
土 岐
乳 がん
高 倉
W alk
St yle
G AME
z y
く すぐ
かわい そう
リ リ
精 算
スト リングス
il dr
ブー ケ
レ イト
曲 名
ッツ ァ
ウ ミ
段 差
ブラ ジ
C all
上 乗せ
啓 蒙
M ap
テ ュー
ジャ ガー
光 り
廃 墟
とど まる
運 勢
Comm un
叫 ぶ
宿 主
手 腕
し おり
コ ・
マー ベル
貸し 出し
m L
ラ ット
徴 兵
べ ん
桃 子
Gre at
七 夕
常 用
根 底
死 な
む き
コン シェル
丸 く
30 8
祀 る
重 工
デ ビッド
日 没
フェ ロ
d at
覚 め
乗り 出し
J ECT
反 田
銭 湯
勝ち 越し
アタッチ メント
ア セン
J an
二 階
18 48
D iv
O h
super ga
割 高
着 脱
真っ 先
乗 せる
独 学
塩 基
総 じて
駐 留
ウ シ
h as
サン ゲツ
唱 える
連 打
SE N
Bus iness
理 子
代 議
アト ラス
スクー プ
鳴き 声
電 極
回 ら
小 坂
P AS
三 沢
Ro ad
ロジ ック
儀 礼
ラル フ
中 量
コント ラ
ジ スト
w iki
ば め
支 那
木 々
繋 い
3 35
ス ライダー
完 治
ノ 島
ヘ ロ
巡 航
セグ メント
文 言
シュ ア
成り 立つ
捧 げる
ジュ エル
フ リン
ル ージュ
プロバイ ダ
お 好み
ノル マン
お好み 焼き
免 責
当 方
是 正
発 砲
F AN
ご し
衣 料
必 需
総 勢
努 める
ウル グアイ
A ug
スイ カ
寝 取ら
法 規
赴 い
六 甲
む な
ネ ッ
ウ ニ
終 末
緊 縛
ハイ ド
ミステ リ
ね ずみ
休 館
恐 る
映 る
ファン ディング
MA STER
フレーム ワーク
が な
留 まる
衣 裳
当ては まる
起 毛
T i
エ ーター
スピ リット
薄 手
父 母
観 賞
D RA
W ikipedia
マ ディ
以 北
キ ノ
加 納
メル ボルン
上 告
云 う
岩 倉
リ バース
方 位
ザ ウ
マッ スル
M ir
ag ue
FRE E
スパル タ
il i
品 切れ
発 起
肥 後
蝦 夷
開 運
ビー スト
清 純
産 み
R AC
吸 着
手放 し
p y
カ ・
ス ライ
無 茶
つ や
ヒ ンド
団 長
煙 草
24 4
アイデン ティティ
も こ
パノ ラマ
履 く
総 量
A re
許 せ
つか め
美 品
引き 取り
クー パー
ildr en
体 長
説 く
ノ ミー
ict ion
安 曇
犬 山
少 額
辛 口
子 犬
バ ラン
低 め
ショ ナー
結び つい
lo ad
イ アン
リスト ラ
l aw
ま れる
七 瀬
P ack
W AL
彩 り
流 派
ブリ テン
提 訴
雄 大
K G
ミ ラン
SP E
千 穂
同 伴
赤 ん坊
跳 び
ジャ ッキー
ティ ナ
ル シ
性 器
Or iginal
S UR
み お
書 体
須 藤
L ON
е т
吉 良
水 沢
略 し
Gl obal
家 づくり
デ スト
ハリ ケーン
バ ダ
伊 集
伊集 院
大 路
術 後
試 用
避 妊
an ge
レス ポ
ソ ケット
扱 える
襲 来
C ur
g ed
夕 刊
委 ね
ot a
河 村
スモ ーク
マグネ シウム
サイ ディング
リ ド
厚 手
吉 井
新 星
宇和 島
ビ ナ
om i
ウルトラ マン
h at
じ ろう
マ トリ
戸 数
T RE
ハイ テク
グ スタ
領 収
手放 す
U X
ガ ク
リカ ン
パ ーム
権 現
磨 く
ふ ざ
堅 い
外 せ
長 島
率 直
躍 進
ブラ ケット
ゴ ヤ
北 原
柔 術
肉 林
フュ ージョン
ド ナ
冬 場
誓 っ
B ACK
ゲ ラ
弘 文
し げ
子 猫
ヴァン パイア
あ べ
大 倉
遠 野
段 落
一 説
л и
al d
生 け
有 難う
E very
宮 島
バト ラー
合 作
自 我
22 8
文 責
石 狩
Ge orge
つか さ
汽 車
溶 かし
ed d
ハン カチ
利 害
マン ダ
らく らく
HO USE
立 山
ひと まず
[ /
ダ クト
撮 れ
海 面
クラ ゲ
混 ん
酒 池
野 沢
パーカ ッション
女 将
悔 しい
帰 郷
東 大阪
赤 松
う なぎ
MA GA
ó n
両 替
S le
南 町
C BS
隠れ 家
ア バター
エキス パート
Ad v
壁 画
面 影
交 わす
成 就
諸 々
24 1
番 付
そろ え
ガ ロ
実 例
造 園
河原 町
ブ チ
就 学
バイ ジャン
モー リス
戸惑 い
水 銀
生 える
リー ク
だ さ
邦 題
ディ ビ
特 約
A SE
パ イル
ホ マ
トリ ノ
島 村
ワ リ
O l
中 頃
喚 起
装 填
王 冠
小 顔
一 夫
出 迎え
車 掌
アル デ
売れ 筋
ビュ ート
しんど い
T ag
ソー ダ
k am
B ag
志 野
裂 け
赴 く
鍵 盤
スト レーション
le ge
Is land
新 垣
種 々
安 土
履 修
st e
アゼル バイジャン
吸 う
挙 動
明 かす
筒 井
城 南
実 寸
VE L
レ ポ
TO TO
D H
ゴ リラ
悪 性
提 灯
70 1
う ーん
使い 手
黒 崎
墨 田
ニュ ートン
ひ そ
カ ノン
造 っ
繰り 出す
if f
白 馬
省 庁
BA SE
総 監
PL AY
M ER
揶 揄
料 亭
黎 明
F NN
不 尽
IT ION
や ろ
RO OM
ハ ズ
自 爆
亜 科
イタ ズラ
レス キュー
晦 日
シチ ズン
地 道
バ ウンド
ガン バ
中高 生
翌 週
ゲ ッ
干 支
28 5
圧 巻
速 乾
WE ST
仕方 なく
オリエン タル
隕 石
クロ ード
キャラ メル
ᅠᅠ ᅠᅠ
異 様
監 獄
新 編
脅 し
サン ライズ
トン ボ
TH ER
水 原
すべ り
森 川
町 民
ツ ジ
同 県
マン ゴー
45 00
イ ワ
30 7
イヤ リング
エレ キ
ハン バーガー
貫 く
猛 暑
Abema TV
ギ ョ
図 柄
線 量
F ut
酷 似
ジャン パー
ロック ン
cont ent
か しく
っ たい
ス プリ
ヘ レン
ロー スト
クリ ントン
京 極
48 6
SS L
法 科
孫 子
文 久
av i
ポ イ
ジャ ガイモ
F oot
火 炎
鉄 鋼
Sc ience
ア トム
隔 週
右 岸
志 す
Je an
う め
シロ ップ
D et
各 局
サ テン
タ ニア
温 かく
25 1
催 さ
スズ メ
淡 々
Und er
ひ し
リ ・
プラ チ
元 和
わ しい
津 子
F UN
い とこ
ま じい
段 々
ジェ ニ
Tr ack
円 高
m ain
怪 盗
江 口
リー ニ
M ill
予 期
咥 え
日 銀
乱 暴
本 宮
火 葬
Hist ory
k t
л а
深 澤
赴 き
ヒ ミツ
se arch
エ バー
靖 国
エロ ス
B AL
東 野
芳 香
le te
患 っ
作 製
血 球
鬼 畜
コンシェル ジュ
脱 線
も め
走 者
つ ぐ
ジ ・
メ ゾン
乗 じ
が える
Char les
K o
サカ エ
ち っ
ter n
近づ き
番 長
色 落ち
あ ゆ
キャ ビン
安 城
支 柱
it ch
角 田
L ar
大 町
空 想
ダイ ハツ
( ;
N i
大 理
栗 山
着 付け
裏 付け
3 11
春 樹
気 遣い
あし らっ
危 う
バー デン
レッ ズ
------------------------ -
3 31
大 道
ほぐ し
デ リア
試 食
磨 い
シャ ク
立ち 上がっ
信 任
前 部
本 戦
格 付け
ur ing
フィリップ ス
超 越
r oll
新 米
リー ・
ハイ レ
ond a
Oly mp
2 21
月 光
ティ ル
シャ ワ
親 身
FU JI
抗 酸
C afe
全 文
松 前
霊 能
V e
些 細
薄 れ
25 4
AQU OS
派 出
田 畑
破 片
am er
恐 慌
ay a
ac le
um a
お むつ
ヤ バイ
ock et
前 頭
教 義
柳 田
イン スピ
un a
ww www
pres ent
フレ ッツ
チ ビ
ヒ ビ
応 急
ber t
断 る
諮 問
発 芽
丸 亀
満 開
化 成
つか み
ガ オ
ランド リー
ガッ カリ
LIX IL
光 源
sh ow
天 明
モロ コシ
か ー
郡 内
ファン ク
狩 野
音 頭
C ross
丸 め
演 芸
コンパ ニオン
人 魚
柳 川
なか ろう
チ ク
従 え
触 ら
カ ボ
サ シ
弱 体
新 版
自 生
難 しかっ
野 心
3 12
従 わ
置 場
ミッド ナイト
一 概
つな げる
だ か
Au th
グリセ リン
根 強い
ディスカ ッション
プロピ レン
ヘ ヴィ
心 掛け
st ep
小 谷
山 東
無 力
順 子
カラ コン
ラク タ
カ キ
む け
安 部
森 永
キャプ チャ
ず ん
埋 もれ
江 川
黒 澤
談 話
V IS
オ キシ
誠 意
クラ ラ
連 射
ウェ ザー
やり 直し
こな せる
単 式
ニュ ルン
, "
積 む
現 に
祭 壇
電 通
Thom as
回 廊
神 山
凶 悪
オブ ジェ
ゆ で
ゴ キ
祈 祷
亀 頭
プロ テク
ひ みつ
宮 中
ガ ルト
従 兄弟
散 ら
法 要
立ち 上げる
In f
もた れ
デ ニス
明 智
プロジェ クター
V ict
ミ ト
通 達
福 原
エント ランス
旧 来
コ ケ
アル フレッド
ブリュ ッセル
ア ノ
蓄 え
STO RE
K L
T a
い とう
気 管
耕 作
G X
励 ん
S CO
広 角
扶 桑
th ing
整 合
簡 潔
SU V
動 的
宗 家
レ ジン
座 面
られ れ
р о
for e
pl ication
-」 (
ifi ed
] ©
右 京
大 当たり
置 物
開 山
キン ソン
サブ タイトル
はず れ
旗 揚げ
行き 先
リ コー
全 英
前 川
コン ドーム
] /
見 沢
tr avel
コ ソ
木 津
開 港
AN G
ブル マ
さりげ なく
黒 部
27 8
交 配
ジャ ワ
図 形
い よう
oo p
いや らしい
両 用
紙 面
埋め 立て
別 売り
00 9
プラ モデル
本 丸
25 7
ロー ゼン
An im
砂 利
f ield
ア ーズ
雑 草
テン プル
共 々
励 み
閉 じる
PRO JECT
l ike
八 雲
晒 し
外 傷
中 尾
23 8
ヒドロ キシ
リ ボ
ひ ばり
終 着
貴 子
G F
イト ー
ベル ン
出 汁
スワ ロフスキー
人 名
楽 々
パイ レーツ
民 進
藤 枝
岸 田
畠 山
軌 間
み ん
市 議
om a
尽き る
B ass
返 上
IT H
クラシ カル
ア コ
! !
都 城
バー ク
トー スト
Sh op
仕 草
昇 降
クー ペ
電 線
des ign
公 害
棄 却
he d
説 き
j s
ト ・
府 道
ヨ ハ
当 人
質 疑
う わ
贈 呈
P ET
ヴェル ディ
分 別
S oc
賑 やか
賢 者
抱 っこ
サク ッ
あ した
乾 杯
治 ら
子 連れ
ジャン ヌ
Corpor ation
バ ズ
Prem ium
act ion
20 22
ジェネ レーション
ショール ーム
翔 太
インスピ レーション
サンクト ペテルブルク
V ita
石 碑
しの ぶ
撃 た
栄 町
Spr ing
カミ ソリ
宝 暦
焦 っ
ボ ビー
体 臭
絡 め
亀 井
アル カ
ム ・
寄 席
集 い
すぐ れ
н ы
内 山
切 削
同 種
東 ドイツ
野 良
本 誌
見 上げ
サイ コロ
おも に
kot adon
モ ネ
ジャ マイカ
河 南
産 まれ
ジャ ッジ
ブル ゾン
E AN
M ach
ス リット
く し
ロ キ
供 与
光 子
好 か
擁 し
な でし
なでし こ
服 従
トランス ミッション
ニ クル
バング ラ
センチュ リー
梅 毒
肉 棒
ジョナ サン
捏 造
斡 旋
居 城
実 印
油 脂
デン ブルク
喋 る
驚 かさ
困 窮
戻 ら
狂 い
ブル ーム
志 し
阿 南
プラチ ナム
ガ モ
片 づけ
B BS
ひろ み
軍 曹
迷 わ
eth od
ミキ サー
公 用
c is
パ コ
Pl an
子 音
美 香
ラム ラ
バファ ローズ
たた き
苦 しめ
頭 蓋
レッ シブ
MO OD
オペ レーティング
D IG
海 浜
マヨ ネーズ
ガブリ エル
A v
ール ・
サン リオ
アラ ーム
真 一
鴨 川
リ リーフ
作 法
延 岡
慣 れる
ニコ ラス
ブリ ヂ
ab out
生 かす
装 っ
せい ぜい
磁 石
I d
c ast
こう じ
岸 和田
ランド セル
マー レ
グラン デ
yn am
ハ ング
アイ ド
] 。
愛 想
漁 船
Coun ty
氾 濫
素晴 らしく
ざ き
モ リス
断 食
見 極める
両 足
ac ter
美 尻
農 協
スタ ミナ
治 り
サン パウロ
? ?
見 よう
プチ プラ
植 田
食べ れ
55 5
乳 幼児
os hi
gr aph
に い
緻 密
Rich ard
B IR
レ ラ
備 品
アル ベルト
M as
bur g
司 る
帰 れ
ファー レン
吉 備
アソ シ
訪 日
動 かさ
ストライ キ
AR K
De velop
スポット ライト
オーク ランド
蘇 生
グラ ード
ブリヂ ストン
榎 本
まさ しく
緑 茶
30 9
R M
Au to
後 漢
自 負
転 属
オン ナ
海 中
ワー カー
内 職
受 精
Sy n
Sm ith
営 み
罪 悪
トラ スト
45 6
ジャン クション
Class ic
益 田
コ バ
ツ ク
酒 田
首 領
高 井
サイ ボーグ
イブ ニング
他 界
立 教
泊 まっ
ヴィ ッツ
四 谷
ピク チャーズ
B oot
え ろ
フェ アリー
リ ヴァ
キャ ッツ
プライ アンス
ケ イン
出 所
右 上
指 紋
瑞 宝
破 滅
純 子
御殿 場
裁 量
延 暦
造 語
ロッ キー
Mac Book
内 障
直 子
アク メ
48 8
置き 換える
訳 さ
類 型
ブ ダ
国 軍
デイ ヴィス
実 演
いか ける
祖父 母
ベラ ルーシ
生 協
b an
お ー
神 保
リ ツ
割 安
dis play
シ ーム
f ont
お とく
k er
打 線
w ar
ア スト
重 用
思い 入れ
ヴィー ナス
常 備
ケミ カル
3 16
X ML
スク ランブル
E SP
寄 進
長 屋
カタ カナ
正 人
異 物
釜 石
SO UND
ッ ケ
ヤフ オク
伝 染
キュ リー
戦 果
抑 圧
たく し
句 麗
摂 政
飛 来
高 句麗
ogr aph
い そ
カン ヌ
C RA
春日 部
き か
神 輿
ユニ ホーム
H IV
七 尾
M use
か ぼ
慕 っ
em ber
24 7
ヨル ダン
チャ リ
B all
抹 殺
着 地
愛 液
H M
発 泡
カー ビィ
ほん とう
ワ ート
ロ コ
奈 緒
学 費
ンド ー
二階 堂
V ista
上 がれ
時 価
頭 取
滅 び
融 通
請 願
退 い
A J
ナ イツ
et er
カ ミング
今 村
玲 子
ジア ナ
コ イズ
ル ター
下 段
収 まる
拓 也
主 軸
震 え
アル ジェリア
ノー ザン
ピ アン
ビジネス マン
S US
am ily
ギ ネス
恵 美
タ トゥー
ビ ーク
寛 容
高 揚
出 回っ
実 子
幕 下
顕 彰
壊 す
積 分
レギ ンス
ラ ズ
リ ヨン
ひ ん
一 通り
魔 人
エ リオ
岩 本
Techn ology
ず っ
h ave
重 臣
また がる
our s
トレッ キング
宮 下
焦 り
葬 式
26 1
航 続
詩 織
速 力
まな 板
n am
棄 権
不 意
天 竜
潰 す
香 典
ジェ シカ
ベー コン
着 衣
ラー ン
取り 込む
ヘ イト
戦 績
悟 り
プル オーバー
街 頭
ブルー ベリー
Stand ard
溶 液
Min i
ust r
S AT
点 滴
足 柄
帝 都
とど まり
漬 物
軽 やか
トラン ジ
ネイ チャー
l im
ず らし
ス ライス
沈 み
西 端
マラ ヤ
クライ ミング
尾 上
心 中
繁 忙
譲り 受け
M ad
弾き 語り
欠 損
スー ダン
h ir
低 速
資 生
シャー ロット
マル ティ
逃げ 出し
取り 込ま
クロノ グラフ
祈 る
ok u
大 晦日
治 虫
牡 丹
プ ティ
創 元
雄 一
ディ ーズ
te ch
LGB T
40 4
AN CE
エー カー
受 理
ム ラムラ
疎 開
抑 止
セント ルイス
TE AM
小 国
愚 か
西 原
ディ スト
剥 がれ
脱 衣
ス モー
従 属
葉 月
トランス フォーマー
☆★ ☆★
昇 天
Ro se
MA DE
ach i
は ね
サー ブ
m ov
メ ッセン
び っ
急 死
見 当たら
葡 萄
一 元
進 言
除 毛
MO ON
リ コール
キャ ッスル
スター リング
SE IKO
ま とっ
ラ ッパー
p c
疲 れる
N ow
愛 読
買 物
船 員
プリ ズム
有 吉
厳 し
痩 身
網 走
ian a
み さ
介 助
特 選
ur ity
可 憐
牡 蠣
n umber
ハ ス
架 かる
災 い
唐 辛子
易 く
泳 い
K T
途 絶え
取り 扱わ
P ad
繋 げ
コン ベ
パン タ
PE G
漂 流
R P
強 硬
ヴェ ント
粉 砕
安 堵
特 訓
ハン ブルク
D EN
冷 たく
スロ ベニア
N BC
敗 者
晒 さ
縦 横
長 き
バイ オリン
gr ess
ぐ さ
Ar c
s en
ア ベン
ブ リア
信 夫
甲 賀
ロビン ソン
公 子
膣 内
23 6
ル リ
トーク ン
鉄 路
一 押し
太 后
ブー スト
h ide
改 宗
明 子
開 票
フレ イ
じ き
進 級
G all
P ass
ね だり
ザ ム
モナ コ
Ze pp
片 面
美 学
DIS C
ロ ゼ
奈 央
民 生
片 付ける
間 柄
宮古 島
終 身
タ ルト
ジェ ロ
静 香
シ スター
全 権
覆 面
近 海
ib a
S WE
十 和田
突 い
ラー ゼ
トウ モロコシ
三 遊
眺 望
ダラ ダラ
バ フ
ブ ズ
iv ing
Roy al
w ell
尾 行
治 水
ひ っくり
推 力
引き 取っ
D ON
御 堂
め まい
黒 沢
ライ プ
着 ける
カフェ イン
す てき
採 算
献 身
US H
頑張 れ
見 所
on a
ガー ディアン
GH Q
之 島
ブ ランチ
充 当
23 4
洋 風
持ち 手
そ そり
バ ニー
ム ント
北 島
減 ら
Sm art
N W
ウェ スタン
R ING
債 券
向 く
D er
人 情
L aw
Z Y
たどり 着い
集 う
低 かっ
満 月
葛 城
パートナー シップ
傲 慢
cin ema
焚 き
さ ぁ
線 維
グリ ッシュ
ふた たび
潰 れ
決め 手
八 千代
こだ ま
ア スタ
八 丁
ダイナ マイト
京 セラ
之 内
園 田
雇 っ
力 強く
電 器
スク リュー
K AT
古 事
ヘル マン
パー ズ
ラク ティブ
カ シミ
助 かる
爬 虫
祭 祀
B ad
家 人
ルー カス
ゆう き
プエ ルト
I ll
元 号
公 約
年 越し
パラ レル
ゅ っ
リ ョウ
ティ ヴ
ペー スト
地 層
5 70
フ ーズ
な え
サ タン
乗 合
埋 まっ
桟 橋
石 山
ip ad
シャー マン
T BC
歌 曲
死 因
鉄 骨
占 有
エク スペ
r en
ウォ ルト
u w
別 れる
共 催
諸 侯
自 粛
お でん
後 回し
溺 れ
親 権
貯 水
ir c
AS P
まん ま
ロ ドリ
凹 凸
ワタ シ
勝 山
メ ッツ
リン ス
24 8
クオリ ティー
M W
ま め
メ ラン
実 話
洋 一
降 車
クレイ ジー
и ч
18 58
無く なる
上 皇
否 め
フ リーズ
踏 む
回 生
ou l
id ae
2 200
T em
神 明
憑 依
極 太
右 足
D om
人 力
供 述
AT P
N MB
操 り
キ モ
レ クリエーション
接 収
同 心
ケ ビン
実 父
東 横
生 還
ジョ ッキー
トリ ミング
三 郷
滅ぼ し
チュ ート
トライ アングル
N GO
カ カオ
ッ シャ
悪 し
用 紙
茶 碗
18 59
手 形
ミ シュ
守 山
K h
凄 まじい
まつ 毛
ワル シャワ
Pet er
弾 頭
桜 花
そう そう
E LE
村 松
なつ み
玲 奈
酷 く
ア ロン
美 和
UT C
の ぶ
ok o
つ かん
余 剰
異 変
ヴェ イ
試 乗
ビ クトリア
東 邦
ーツ ク
ac y
実 技
換 金
書 ける
ハン セン
ブ リーフ
ジョ ウ
創 る
コフ スキー
ン ・
36 6
コス ロ
M ENT
素 肌
清 涼
22 9
エ チル
釣 れ
除 籍
二 百
各 務
呼び 出さ
さ だ
彼 岸
ウエ イト
M ak
尋 ねる
LE S
遭 う
イニ シャル
_ )
n on
奇 数
捕 ら
熱 田
白 熱
おし っこ
乱 闘
思い 出さ
か える
ミ ミ
井 川
和 音
工 廠
ノミ クス
ヒ モ
か ぶり
邪 悪
NE X
三 和
18 40
クロ ニクル
.... ....
坂 東
勧 める
藤 子
キャン ベル
古 銭
島 々
狭 間
ユニ バース
チュー リップ
軽 巡
佳 子
ディ ビジョン
烏 丸
レス ター
ニー ナ
ル アー
代 え
7 37
l ib
み く
造 作
ラン タン
7 10
カ ース
疾 風
フレ グ
✨ ✨
レ ツ
まっ たり
に し
密 室
気 まま
鶴 田
カタ チ
qu est
コ ルト
吟 醸
キュ ウ
松 崎
近 づけ
プリング マットレス
MOOD YZ
u i
扇 風
譲 る
イン スタ
雲 南
it ies
Instit ute
一 派
ホリ デー
別 物
準 急
ロー レン
ビ レッジ
チー ノ
ココ ア
え っ
л ь
キ ーズ
思い 立っ
し げる
オー ブ
ロ ワ
l ink
たた かい
サ ファ
分 身
産 む
具 材
日 田
白 浜
OR IG
古 巣
尋 問
返 送
ヒア リング
盛 大
if ul
ぶつ かっ
収 監
市 域
向き 合っ
吾 郎
異 色
チェ コスロ
原 文
榊 原
遅 刻
( '
反 日
P B
ポ ポ
シ ボ
デ モン
小 僧
曹 洞
規 律
23 9
青 銅
it age
スー ザン
セ ナ
向 原
ビル ディング
f irst
助 かっ
囲 ん
スマ ッシュ
偏 っ
千 種
St ate
手 札
鋼 鉄
産 生
I K
ぴ ん
N WA
と け
ま わっ
台 座
ピ ント
クラ ック
傷 つい
埠 頭
従 前
頻 発
45 8
Amer ica
ルー シー
山 林
編 制
マン ズ
N AT
大 別
客 船
収 まり
土 方
赤 道
if ication
スカー フ
es h
膨ら ま
闘 う
よろ しい
バー チ
フラン ケン
ツ ブルク
スワ ローズ
こ っ
エ ポ
つぼ み
館 山
徳 山
新 造
ボウ リング
タ ツ
ガー ゼ
アナ リスト
オート メーション
イン グリッシュ
チャ ーター
イ ラマ
泳 ぐ
シャ ム
夕 日
抵 当
b ody
s im
G od
財 界
In formation
津 々
濃 密
花 子
ファ ウ
ストロ ベリー
v ia
学 派
コー キング
sc he
原 価
29 6
ディビ シオン
o z
叶 わ
バタ フライ
老 後
アニ ソン
p ack
失 恋
義 勇
戴 冠
遊 具
震 源
完 済
道 のり
開 梱
AS HI
碑 文
ーーーー ーーーー
月 面
宗 像
後 進
採 寸
根 性
B ell
D OS
イ スタン
28 8
エスカ レーター
ジ ミ
伴 わ
鉱 石
切 開
嘔 吐
IN S
理 恵
EN GL
吠 え
延 喜
24 2
クロ ロ
クルー ザー
ち と
ア ワ
服 飾
S ex
ま ぐれ
ティ ・
Af ter
ロ ト
純 度
蛋 白
ウェ ッジ
パ ルト
対 向
経 常
試 算
ウス ・
angu age
k s
Lim ited
外 れる
慕 わ
M J
秋 月
プル ン
税 関
jp g
近 似
コ モン
範 疇
こと ごとく
博 文
雨 宮
イン コ
ロー タス
分 家
俊 介
解 か
w id
野 原
ar o
持ち かけ
下 総
シ モン
N OS
モ カ
策 略
西 岸
上 人
砲 台
咽 喉
9 10
べ つ
慰 霊
辰 巳
bl ack
取 ろう
模 範
ほん のり
サム スン
単 勝
フラン チェ
ツェ ル
day s
Not e
堀 田
O pt
パ ント
大 空
幻 冬
片 隅
Lou is
ツ マ
リ ビア
放 た
登 頂
ディア ス
ヨハ ネス
H ello
倒 れる
In v
大 口
用 水
コンパ イル
みな す
cl ub
照 準
通 例
マ ッシュ
ぶつ かり
機 長
外 人
巨 匠
欠 如
美 奈子
会 期
列 挙
S ING
リ マスター
飼 料
ec e
海老 名
ネ プ
ネ ックス
変 容
美 樹
り か
希 子
フェル ナンド
隣 り
18 55
直 属
菜 々
断 定
S ant
体 当たり
掴 む
旧 称
寺 町
貫 い
だい がく
f ly
揺 る
潰 さ
無く し
月 末
破 裂
01 20
根 源
8 70
U r
公 家
熱 烈
d B
中 庭
宗 派
末 尾
トレー ディング
スピリ チュアル
怪 奇
いろ は
はじ まる
е в
st al
や う
f ree
公 卿
郡 上
00 4
勅 令
改 ざん
綴 り
PART Y
i ous
久 喜
三 輪
S BS
純 一
逸 脱
グラ ミー
食べ よう
ひ なた
気 合
習 志野
悶 絶
ヒ ョウ
アーノ ルド
モ ラル
同 曲
基 底
キ ヨ
荘 園
降 雨
オクラ ホマ
アド バン
特 務
メッセン ジャー
釣 っ
先 天
狭 義
コ ペン
バ オ
喰 い
カイ ザー
人 脈
分 量
競 い
お び
絞り 込み
m ax
20 000
名 字
巻 末
か め
ア クロ
貸 借
th ers
ク イン
延 滞
長 良
コン ポ
ワイ ズ
カツ オ
ウエ スタン
ateg ory
劇 作
爪 切り
Q B
警 護
キャ ミ
フェ ーズ
ヤ ギ
哲 郎
ランド ル
深 谷
増 資
圧 勝
大 仏
バック ル
生 母
賭 博
クロス オーバー
な む
ナイ ジェリア
インタ ラクティブ
YouT uber
G a
む ち
働 け
入れ 替わり
実 名
レク チャー
プロ ス
ノ エ
労 災
レスポ ンス
h ouse
あさ ひ
めざ す
其 の
当 分
竹 下
37 5
C ITY
退 却
ヴィ エ
コミ カル
18 54
-』 (
ジョル ジュ
名 取
好 ましい
異 国
キャ ブ
見逃 せ
ダイ ソー
ゴー ニュ
しつ こく
l or
動 植物
採 点
気 体
無 知
祈 っ
童 子
肝 要
酢 酸
持ち 帰っ
Gen eral
バー バラ
Fest ival
カリ ビアン
懸 賞
木 戸
欠 い
歳 月
防 火
st udio
現 像
コウ モリ
み のり
下 方
健 診
憎 悪
I ME
殺し 屋
漠 然
この ごろ
名 高い
私 服
HIG H
く らし
ピ ロ
除 菌
磁 場
脚 部
トゥ ルー
茅 ヶ崎
格 別
エン ヌ
・ ス
助 産
損 なわ
art icle
iz ed
卒 園
組み 込み
D AI
み える
応 対
谷 村
うち ょ
体 積
周 防
蔓 延
補 欠
貧 血
ay er
キ ナ
大 祭
凌 辱
有 望
24 9
M ount
単 相
アミューズ メント
再 戦
Per f
な さっ
連れ 込ん
M ont
ルーズ ベルト
巨 根
東 端
刺 客
摂 り
矢 印
M us
投 獄
沖 田
通 わ
ハー プ
シ モ
水 位
。 [
キ タ
左 足
エコ ノミー
F ound
内 村
アル ド
AK E
わい せつ
浴び せ
そ っ
エ レン
ぎり ぎり
カ ヌー
ハ レ
増 減
裕 美
M ens
ート ・
ab e
精 進
う す
大 火
エ スコ
限り なく
焼き そば
Pl at
, (
来 客
CL ASS
一 望
冴 え
左 京
コ ブラ
掃 海
日 大
シュ ミット
ストック ホルム
K AN
O x
ホ ック
完 封
徳 永
ア トレ
選 帝
マ ダ
リ ョ
敦 子
村 井
通 年
ふざ け
Z R
び わ
始 祖
遷 移
ポ ーション
傷 み
定 量
直 進
ac o
b ag
スパイ ラル
純 米
ブル ゴーニュ
ビン テージ
l ag
ミ ジア
膨 らん
電 脳
引き 寄せ
カル ボ
hi ro
t ran
獣 医
透 析
フリ ゲート
00 5
繰り 上げ
チェル シー
ガ ガ
宝 くじ
果た せ
かぼ ちゃ
スペル ガ
d ec
ひび き
じん じゃ
M ade
GP U
Col lege
銘 菓
たこ 焼き
缶 詰
二子 玉川
LO U
ご い
察 し
気 絶
Br it
Dr ive
仁 川
ダー ツ
ヒンド ゥー
万 国
田 んぼ
クリー ブランド
低 地
旧 約
話し 合っ
インスト ゥル
N ER
つ み
林 檎
街 区
人 びと
中 道
日 当たり
深 層
入れ よう
チュー リッヒ
横 開き
顔 出し
CAT V
海 辺
BR ID
S ony
t ak
ポ タ
ニコ ル
J NN
ダイ ム
大 牟田
ディ ルド
瀬 川
雨 水
ブル グ
読み 上げ
S X
シ クロ
旧 道
縦 断
Mag ic
V T
趣 向
in n
タン カー
打ち 明け
ゲ キ
in cl
28 6
留 める
シリ ウス
r ent
スキ ニー
pro v
ORIG IN
タ ミン
ブ ナ
杉 原
35 2
バングラ デシュ
三 笠
使 おう
根 室
リカ ル
シュ トゥ
23 7
拠 出
景 勝
ヴェ ール
Ch ina
ア ボ
ク ツ
官 庁
硝 子
って つけ
R ac
り え
k an
征 伐
クロ ーム
五 反田
撃 っ
隷 下
取り 除い
ヴィ ジョン
mix i
c afe
舞 っ
襲 いか
g ×
羊 毛
ア スキー
悪 人
街 路
N ext
w r
繋 ぎ
クリ ミア
同 義
ファミ 通
家 業
O Z
JO Y
m id
テン ダー
日 照
申し 入れ
葬 祭
E ver
神 事
里 山
ダ ブリン
引き 取ら
水 温
ラン ズ
おこ ない
Vis ual
壮 絶
コツ コツ
激 闘
26 6
引き 上げる
AN Y
WOR K
J azz
市 政
深 田
シャ トー
金田 一
m ap
勝 浦
柳 生
G ames
ウ イン
マ シュー
リ ンド
ジョ ーク
d on
det ail
方 策
H ON
不 定
書き 込ん
ッチ リ
判 ら
40 3
B an
リム ジン
須 磨
ツィ ヒ
u ff
具 現
転 々
外 形
クラ ミジア
クロ エ
ポリ タン
分 立
小 栗
はず し
CRO SS
ハ ント
str uct
むな しく
豊 洲
ディ フェンダー
デオ ロ
ビ バ
張り 替え
TA X
ざ ら
写 像
宿 命
マン サ
H ard
各 部
エルン スト
カ イン
ケ ス
亀 裂
難 関
高 裁
売 主
真 性
惜 しま
造 る
29 5
ポ プラ
ラ シア
呼 応
葬 ら
29 9
麻 里
欠 く
頒 布
あこ がれ
わ かれ
ケ シ
良 野
os k
体 色
物 凄い
使い 心地
ライ ジング
バー ズ
カー ボ
組合 せ
ツ キー
リン ゲン
フロ ート
歓 喜
附 則
主 治
手 話
C ase
S af
Bill board
河 岸
オカ ルト
チャ ラ
フェ スト
バ サ
Re ference
志 郎
St or
シ タ
ビ ギ
崩 御
m ade
スエ ード
強 奪
被 り
シェ リー
は さん
近 縁
Can on
太 朗
奥 義
盛 況
スカイ ライン
くわ え
お ける
シャ ドー
ルク セン
n ic
印 紙
日 月
混 沌
由 美子
防 具
マルチ メディア
mo de
V L
別 居
藤 崎
通 風
ig e
葉 っぱ
ER ATION
ピスト ル
創 生
交 替
Sp eed
フェル ディナ
7 30
哲 哉
富 良野
美 浜
買い 換え
Enter tain
ス ケー
防 風
c ase
b in
対 潜
ジェ ー
chan ge
カル ティエ
玉 子
40 9
三 つ
茂 木
M IS
義 兄
bl ue
各 号
ペル ソナ
し ー
目 白
落ち着 く
風 刺
三遊 亭
下 層
会 わ
pr int
F ore
容 積
野 鳥
50 5
グリ ム
W HO
ok a
DAY S
良 子
銃 弾
ア グリ
朝 刊
結 界
絶 命
艦 載
マ ズ
ジャ パ
吸 水
離 党
は いっ
真 鍮
ジ ブリ
ド ーン
要 所
ティ カ
35 5
出 れ
復 習
長 井
ゆ うちょ
便 所
嫌 気
持ち 味
ワン セグ
グスタ フ
v ideo
未 然
ポリ プロピレン
だる ま
妻 子
螺 旋
額 面
布 教
居 室
Mark et
ダ リ
F all
秘 宝
風 速
ポート ランド
野 戦
ク シ
セ パ
直 美
至 近
タ ネ
予 知
戦 わ
Be at
ファル コン
i os
し つけ
手 すり
フィール ダー
弾 性
目 印
術 師
プー チン
さて おき
ジュー シー
早 苗
48 5
ブ カ
サイ ダー
qu es
デ マ
ベ ニ
井 口
錆 び
尖 閣
ENGL ISH
藩 領
Mov ie
ぽ ろ
帰 化
寂 しく
山 荘
見 物
ハ ック
壱 岐
ヒュー ズ
四十 路
悪 口
新 鋭
Christ mas
sp ort
戸 建
物 凄く
ter s
つか む
遊び 心
キ ノン
沿 う
べ た
一 端
鋭 く
架 橋
As ia
輪 郭
恥ずか しく
ひょ っと
p H
い づ
人 型
エディ タ
D N
T ran
ジ カル
クリ ム
ホーム レス
CC I
公 然
橿 原
アルデ ヒド
快 挙
送 れる
ダン テ
マイル ド
・ アル
聞 かせ
Sou th
聖 徳
思い つき
借 用
密 閉
教 鞭
毎 度
町 並み
気仙 沼
X A
沢 村
簿 記
Pr inc
入 線
マリー ナ
身の 回り
h air
の く
Cont in
シ エラ
ブ ート
年 寄
疑 似
付け 加え
つ ゆ
リス ニング
ベン ジャ
Re f
くつろ ぎ
原 町
着 うた
IV ERS
増 量
教 わっ
クォ ーター
区 長
地 デジ
アイ オワ
ティー ノ
イスタン ブール
図 案
is ode
む き出し
出し 入れ
ヘキ サ
い ぬ
か の
文 様
民 兵
d oc
享 受
焼 却
穴 場
まく ら
F ull
M ur
西 岡
ラ ミ
削 る
歌舞伎 町
バ タバタ
守 れ
オート マ
ゴミ 箱
打 数
隠 岐
ブレイ ブ
丸 型
添 い
フィ ッツ
シュ ヴァ
ぐる ぐる
うん ざり
5 90
側 室
呼 べる
安 室
無 謀
C LI
N PC
本 位
本 稿
W F
ス ライム
初 旬
西 園
be aut
ッコ リー
グレープ フルーツ
J CB
柏 崎
エ ニ
タン ゴ
あ め
片 桐
Sing le
独 断
新 月
自 営
豊 満
名 言
浅 く
賑 わっ
ゆ ー
ワー ゲン
ワン コ
Pro fess
憲 章
ト カゲ
溺 愛
ザン ヌ
ク エリ
専 売
ひと 時
散 乱
新 進
旅 立ち
沈 め
ブ リス
潜 り
美 作
サン ズ
C LE
c am
屈 辱
比 重
カザフ スタン
- 「
ぽ う
小 銭
締め 切り
出 向い
官 職
治 っ
高 浜
批 准
替え 玉
修 得
t est
は ま
精 査
ぬる い
突 進
el le
ウィーク リー
さ び
冷 や
生 い
言い 換え
DAN CE
I ES
ミ ソ
黄 門
TE CH
キロ グラム
プロバイ ダー
バ ケツ
回 顧
B attle
タ ・
山 道
スゴ イ
先 立っ
書 誌
26 2
スクラ ップ
前 払い
激 励
つけ よう
SO UL
ノル マ
ぷ い
出 兵
山 王
付け 根
サ トシ
商 談
塩 原
ジェ ス
in y
トレード マーク
体 外
市 外
pr ise
会津 若松
ホ ラ
参 詣
可 哀
発 効
uk a
MR I
中 谷
打 球
日 にち
キツ ネ
まろ やか
K ISS
ラ ビット
途 切れ
ブル ドン
キム チ
入 庫
直 り
紡 績
のめ り
喘ぎ 声
き し
久 慈
H IP
小 澤
ak o
吐 く
Play er
Expl or
酸 性
真 弓
大い なる
コーポ レート
ブロン ズ
Sp ort
前 輪
捕 鯨
オモ チャ
M ess
c d
箕 面
たち まち
どう ぶつ
m it
疾 走
P ON
ユ ーズ
程 よい
脇 役
まさ み
ド ネ
右 派
く も
用 地
追い 込ん
降 ら
9 11
D en
A st
島 内
ピク ニック
ソム リエ
平 定
ap on
ア レッ
供 え
削 ら
以 西
奥 羽
乳 児
And re
ゲ リオン
三 千
先 立ち
モヤ モヤ
鮮 度
景 子
届け 出
Work s
H N
K SA
仙 人
同 郡
EU RO
みや げ
ば か
ニン ジン
スリ ッパ
レジ スタンス
見 送り
質 屋
r ing
伝 わら
キャラ バン
取 付け
山 県
心 霊
Th ink
ルイ ジアナ
h al
con om
ドミニ カ
ダ ックス
美 紀
弁 天
殲 滅
合わ さ
ツル ツル
R os
黒 幕
Car l
叶 う
度 重なる
阿 武
試 聴
ベン ガル
ヘ ム
ドゥ ル
iy a
コンペ ティ
P age
モ フ
R oll
高円 寺
H ID
cont rol
Entertain ment
m il
晴 天
煮 込み
T ra
フ ルー
メ ド
星 雲
シ ブル
三 枝
携 わり
月 日
監 察
к о
皇 女
属 す
機 雷
漱 石
ひ だ
カ ライズ
律 令
美 月
ph a
Fran k
K in
あっ ち
メン テ
ニ ・
明 かり
矢 島
デコ レーション
サ ト
国 歌
柑 橘
タブ ー
スー パ
延 ばし
海 南
無 言
翔 子
ロー リー
ジュ ウ
つま 先
HE AD
ナップ ル
M BC
d uc
ベア リング
スウィ ート
世 襲
集 成
ber ry
ガル シア
近づ ける
k it
ケ ータ
サン ケイ
ラ プ
潮 流
習い 事
脱 水
リュック サック
シ テ
探 っ
ま ぶた
川 沿い
帰り 道
ス プレ
アン モ
貞 観
ハイ マー
B AND
n es
ム カ
水 彩
遺 骨
グラ フィー
26 00
SPE ED
D DR
E v
平 穏
バ ロ
振り 付け
Py thon
古 谷
敷 金
自 重
挑 み
風 水
ぼ っち
強 気
ティ ファニー
真っ 直ぐ
応 じる
B ody
34 4
テ ツ
錯 覚
SH IN
ツイ チ
フッ 素
а р
26 3
ガリ バー
休 息
気 球
網 膜
学 べ
廃 線
気 さく
聴 衆
脱 却
風 情
随 一
大 通
早 乙女
長 安
履き 心地
同 化
ペル シャ
R SS
下 宿
開 脚
コン フォート
ワ レ
コン シュー
仏 具
同 条
集 大成
se ason
地 検
マイ ヤー
巨 額
18 56
h igh
ボ エ
井 原
総 武
メリー ランド
人 身
取 手
屈 折
整 頓
論 点
op en
罰 則
フリ ップ
o es
ひ か
失 速
明 星
V ir
y m
に っぽん
40 5
トリ ニ
H ill
◇ ◆
測 る
合 図
正 宗
プログラ マー
N X
日 出
梶 原
イン ダスト
60 1
もみ じ
Z X
カ チン
ic les
ホー テ
ラン ディ
パイ ナップル
わ たくし
凝 り
大 月
W onder
イ デオロ
モ ック
メリ ハリ
S om
ク ッパ
00 6
ニュー ギニア
波 多野
絨 毯
おや じ
包 む
レー ニン
マッ ピング
のぞ き
球 体
試 料
なら ず
わ ー
E lement
H AL
—— ——
離 せ
共 謀
大 々
幕 僚
Soft Bank
ヒ コ
境 遇
定 型
平 米
浴 場
飛 翔
ブン デス
カプ コン
即 金
横 手
ペア リング
教 場
ファミ レス
バ ツイチ
吐き 気
フ ール
自 機
ダイ アナ
浩 一
花 王
豪 族
のぼ っ
及 川
ヴィ レッジ
がんば れ
至 上
擬 似
裁 定
プロ ファイル
Ber ry
百 姓
折り 畳み
ベンジャ ミン
殴 ら
花 巻
備 蓄
18 20
ミ セス
黙 示
ライ ザ
マグ マ
憲 兵
ケ チ
ネ オン
fl ow
くっ つい
彩 る
清 原
UND ER
山 岡
LA ST
F IT
ピ エロ
高 津
フェミニ ン
ア ウェイ
小 数
バー ナー
ち そう
殿 下
鳴 っ
eb all
断 ち
チルド レン
レ ゲ
英 米
ar u
b ank
右 折
dr ess
и й
ホ テ
精 油
かけ 離れ
サル バ
セ イン
メ タン
南 道
法 師
場 外
z en
仲 裁
8 20
ば み
is che
SE ED
Ch ildren
つ ー
俊 彦
染 料
ティ シャン
メン ツ
ブラ ザー
読み 取り
s he
文 系
港 町
無 邪気
F ed
み せる
矢 先
LL A
9 30
コ ピ
セー ヌ
な だ
吐 い
尚 書
つ む
レ ノン
前 世
嵐 山
しま わ
ust om
浮か べる
慈 善
イデオロ ギー
蒲 生
や ばい
ディ ストリ
コロッ ケ
N ARU
ス ツール
金 城
アニメ ーター
ur i
R V
作 文
同 定
恵 那
懇 親
有 難い
pro ject
ガ ルー
山 上
美 智子
チェコスロ バキア
ホ メオ
速 攻
高 杉
ヶ 島
責 務
メカ ニック
S ir
楽 屋
ゴル ゴ
土 手
肥 大
R IS
s un
一 ノ
円 谷
ば っちり
キ ルト
条 文
伝 来
倉 田
川 辺
高 官
がんば り
S AL
サ ドル
輪 姦
ドレッ シング
モ レ
スパ ム
4 15
G arden
兵 役
す た
ク レーター
篠 山
見 栄え
! '
り さ
即 し
弱 者
á n
強 まっ
手 触り
誤 認
シュ テ
SHO CK
セ ツ
ミ ライ
刺 す
氷 川
Co de
br idge
ボ ナ
エク アドル
すん なり
一 朗
病 状
選 り
っこ い
和 光
ジー ミル
アンド ロ
SI L
直 訳
半 月
印 字
ブック メーカー
コネ クション
噴 水
搾 り
ジェ ンス
エ バ
所 収
ph p
ハ ノー
um s
ア コーディ
情 景
フォル クス
29 8
キ ホーテ
ス コー
余 談
精 鋭
ノ ワ
リ ッター
生き 生き
モデ リング
I l
役 柄
気 流
点 滅
こ け
ぴ あ
無 けれ
プロ ット
け り
フラン コ
- ^)
st and
す さま
肥 前
潜 ん
白 紙
スラ ヴ
バ マ
転 出
ア レス
乗 換
ウィ ス
アテ マラ
anc ed
尊 厳
サー ガ
MI L
サージ ュ
カルタ ゴ
さ ゆり
ハ サミ
張 本
忠 臣
農 作
向き 合い
念 仏
ディ ル
Z EN
ち なむ
岡 野
感 慨
知 行
邦 楽
Ear th
Sec ret
H AR
中 流
平 戸
眠 気
E conom
ノ ーズ
兵 装
ティ コ
ウィン ブルドン
J ac
り す
ロッ ジ
ト ルー
選 書
ロ ド
^^ *)
おろ か
h ist
ショ ア
平 壌
下 限
立て 続け
突っ 込み
マー メイド
ほや ほや
制 式
安 永
残 虐
綬 章
伝 播
守 ろう
軟 骨
か おる
ケ ベック
褒 章
時 差
斬 る
移 入
or ia
om b
アウ ディ
ゲー マー
Gre y
CAS IO
囲 い
好 ましく
エステ ティシャン
S qu
切 ない
空 洞
id es
ブンデス リーガ
は つ
ゐ る
ペ ール
石 神
ビジ ター
貝 殻
上 総
下 回っ
海 抜
霊 的
s ky
採 ら
バ ント
江 原
伊勢 丹
移 築
リー プ
K ON
瀕 死
ヘル ニア
ソ ート
ハ ズレ
CH A
ふくら はぎ
粛 清
被 疑
お っとり
皐 月
ホ ノル
ファ クター
アル ス
UN O
盛り 上げる
エント リ
ヴォル フ
ピッツ バーグ
学 内
鎌 田
ター トル
ベン ション
ただ ただ
決 行
チャ ージャー
生まれ 変わり
TO YO
テ レス
電 解
銀 貨
養 う
FO X
単 線
エヴァン ゲリオン
ク チュ
全 巻
立 証
目覚 める
創 世
縫 っ
ジュ リアン
awai i
4 12
ソ ノ
成 約
タイ タン
TO RY
スイ ミング
F G
肩 書き
難 航
アラ フォー
ヴァ ンス
un ch
宮 原
悔 し
鋼 板
J er
傾 い
デー モン
res p
オ ホ
英 名
謳 っ
ブラック リスト
傾 き
朱 印
サイ ユ
S AS
太 政
艦 名
ホテル ズ
まち まち
エ ター
あら われ
レ フェリー
住 田
年 鑑
プロ パ
やむ なく
塗 ら
スタン フォード
Hot el
内 径
チャ ペル
飛び 交
I MA
D OL
いっ そう
mo omo
飛 散
カタ ール
アクシ デント
ボ レロ
奥 村
明 王
湯 川
K H
ジ ック
利 か
相 席
バリ バリ
丸 見え
損 益
死 闘
越 中
o le
ゼ ウス
全 勝
湯 沢
しょう ゆ
しつ こい
蛇 口
ルクセン ブルク
マ ゾ
締 切
身 元
いや いや
く びれ
留 袖
纏 っ
随 筆
クラ テス
あ じ
エ プソン
18 57
A ust
Z en
ド ニ
沿 革
ナイ ア
の き
ガ レ
新 線
ナ ショ
残 骸
はた して
ひ っそり
ニ ッシュ
IT AL
元 ネタ
浅 川
ハ ール
幾 ら
ジュ リエット
出 没
致 死
臼 杵
減 税
こだ わら
サ ワ
冷 酷
唐 揚げ
L y
上 村
結 束
Bro ad
公 道
新 選
イチ ロー
スター ター
JU MP
v ir
増 備
借り れ
平 衡
農 耕
Y G
囃 子
50 2
トリ ビュート
ナン デス
4 33
テレ フォン
l ad
ケ タ
シ イ
伸 長
脚 色
3 28
T ouch
丹 羽
B oo
O VER
公 転
ぴ っ
憧 れる
石 見
魔 族
Ch o
複 層
見 込ん
ヒ ナ
問 答
4 25
凶 暴
技 量
高 卒
は か
白 雪
なか よし
Cook ie
い と
戦 中
投 函
Nav y
エス パー
絵 巻
ニャ ー
欲 情
パートナー ズ
> _
ボ ロー
ドラ キュラ
ラ ッド
大 概
持ち 歩い
市 町村
硬 度
税 額
27 6
トン プソン
ヤバ い
成 婚
から くり
しか ける
ダイ ワ
サイク ロン
剛 性
高 低
プ レビュー
ゴキ ブリ
V an
し っ
球 菌
カー ゴ
しゅ ん
再 演
脱 獄
蓄 電
W ater
回 送
悪 戯
サム ソ
互 角
シャー シ
売り 出し
ロー ナ
ミナ ミ
ジェニ ファー
ア ニー
26 7
AS ON
若 宮
De ar
アタ リ
武 雄
ジョ ゼフ
3 13
■ ■
体 現
ア ウェー
小 宮
恩 師
フライ ヤー
何 に
ann a
ささ やか
軽 度
ホノル ル
R iver
インターン シップ
めっ た
し っくり
エキ ストラ
ぱ っ
アイ ズ
as a
35 6
inst agram
о д
18 53
RA IN
シグ マ
ダ ッ
新 道
競 売
見 守り
フォ リオ
ac cess
C ER
ア リスト
バ ケ
iss ion
夏 期
従 順
マク ラー
PRE MI
トピ ックス
アコーディ オン
8 30
G IG
ビ ルト
同 書
AR S
在 留
中 嶋
書 こう
手 下
ボリ ビア
コ マン
和 気
幽 閉
ショ パン
言い 渡さ
中津 川
r ight
ライ ツ
トラ ム
45 5
Book s
ロックン ロール
右 下
日 暮
小野 寺
' )
ヒ マラヤ
養 女
f ollow
干 す
レオ ナルド
東 欧
永 野
ソ バ
慎 吾
24 3
引き 受ける
45 7
た ぁ
前 原
手 がかり
過 ち
pro duct
い じっ
命 じる
夜 空
チュ ニック
ロイ ター
ぷ ん
al og
ブラ スト
乗り 込み
グ アテマラ
一 掃
発 育
生まれ 変わっ
コンペティ ション
i j
RE AL
モ ビル
心 拍
技 研
う そ
べ い
吊 る
b us
さ ながら
実 権
繰り 出し
po int
焙 煎
腹 痛
際 立っ
サロ モン
東 電
アイ ゼン
ファー ソン
ソー シング
慈 悲
はち みつ
f m
シュ ・
く ぼ
プ ア
疑 念
春 風
蜂 蜜
ハマ り
b al
F an
た まる
ア スカ
体 位
リン チ
自 賠
き つく
一 室
っちゃ け
薄 め
キ キ
ベ イト
城 東
備 中
Soft ware
D og
s ign
が たり
ア フロ
ワイ ワイ
便 り
屋 久
しょ く
わ かん
チ カラ
役 立っ
江 ノ島
る い
ケ ルト
ジ ッパー
マ ウ
妖 艶
真 澄
陰 茎
ウズベ キスタン
ど く
全 室
算 数
ダ コタ
パ サ
足 裏
野 手
分 科
陶 磁器
カス ティー
ラポ マイン
ロ ビ
事 後
100 1
コ ルド
ス ナ
一 昔
垂 水
ティ スト
ジー ナ
いま さら
嘆 い
スリー プ
B ALL
雨 天
日 進
海 藻
面 識
ノン ストップ
3 21
同 業
憎 しみ
板 垣
離 職
ポ ッター
別 所
城 内
あ ぶ
ア プ
ヨ ド
施 主
ロ ザ
モ ウ
硬 直
イース タン
L TD
渋 川
ect ion
燃 やし
en c
E PS
gr oup
腹 腔
トロ イ
Or der
S aint
む かし
小 出
過 敏
スム ース
5 25
インストゥル メンタル
b oy
ベ ッキー
社 民
あげ く
Dis ney
ぷ ち
経 典
ミ ドリ
歩 む
ガン マ
バレ る
び しょ
シャ ア
38 6
後 円
所 謂
ティ ウス
e le
投 合
29 1
恐ろ しく
k ing
弊 害
Con nect
主 戦
歌 集
白 衣
引き ずり
デュー ク
暗 躍
人 為
難 く
オー リンズ
K r
L IN
シャ ット
寺 島
id o
思 案
29 7
あ たら
か なめ
シ ッター
ヘ ッジ
採 決
え っち
昇 華
AR O
病 変
華 奢
se lect
ブレー ブス
しず く
流 山
リア クション
ガー ナ
シャン デリア
Lad y
C u
博 之
開 演
wid th
寄 港
童 謡
骨 髄
et t
芭 蕉
ゲオル ク
団 員
興 信
課 せ
自 前
託 児
ハ プス
g ht
果 樹
谷 山
微 小
細 分
輝 度
知り 合う
m ir
県 都
誠 一
鉄 人
スキ ップ
緯 度
ジェ ニー
R h
Tw o
ス ジ
歓 声
膀 胱
オーク ラ
イ リュ
後 発
混 成
l ov
侮 辱
立ち 入り
謹 慎
アトラン ティック
コ ノ
満 塁
ター ナー
冤 罪
渡 邉
ar m
チャイ チャ
T od
り な
女 医
平 昌
マリ ッジ
d iv
n or
ポ ーク
築 造
サムソ ナイト
う ろ
ト レン
求 職
藤 堂
鳴 らす
プレ ジ
is ion
f ri
転 がっ
H AN
J TB
宝 永
広 める
透け 感
D at
波 形
繁 盛
メタ ボ
b ow
IE EE
O E
シ バ
多 治
日 置
満 席
行 先
サ マンサ
グレ ッグ
T G
乾 く
副 官
堅 実
w p
代 物
揖 斐
準 用
IR A
ビチョ ビチョ
血 縁
な ご
健 やか
挟 む
見 返り
先 手
クロ ース
V W
締 り
離 す
NARU TO
ゲル マン
タ リオ
パ フ
・ ザ・
世 俗
埋 蔵
船 内
本 流
ed e
く い
コン プライアンス
プリ ウス
Cont rol
to kyo
入 念
複 素
しく み
ネ ッツ
空 け
空 挺
ご ちゃ
表 地
レイ ズ
ボヘ ミア
ホ タル
er ing
CO UNT
帰 ろう
書 評
d og
OR A
エ デン
レ ゴ
だ せ
サ トウ
草 加
クリ フ
TO SHI
聖 霊
赤 塚
詰め 込ん
☆ ☆
上 面
円 安
勝 田
坂 下
工 兵
取り 残さ
ul u
Rub y
物 置
t itle
快 気
黒 猫
侍 従
阿 佐
頭 上
トラ フィック
悪 霊
音 速
クラ ウス
白髪 染め
ずら り
Jose ph
ピ ノ
取 組み
同 胞
座 談
攻 める
焦 げ
逗 子
クレ オ
林 田
ディ ラン
27 2
フレグ ランス
代官 山
r ough
庇 護
27 3
エッ セン
イ チャイチャ
仕 分け
清 朝
自賠 責
過 労
18 10
想い 出
国 定
校 地
血 中
五 百
家 紋
排 卵
検 閲
廃 盤
岩 瀬
蒲 原
モ ルト
優 れる
フィー バー
ぜ ったい
ワ ナ
アニメ イト
チュート リアル
由 利
コン スト
He ad
ッチェ ル
л е
アレ キ
軽 視
連 なる
っと も
クリ トリス
5 75
M u
生 死
読み 込み
NN N
メトロ ポリタン
コック ピット
V en
石 塚
at i
卒 中
成 型
出向 く
不 服
界 面
р е
前 走
ジャ ル
わさ び
あ ちら
吸 気
指 南
か ち
リー ガル
K ER
勝 る
書 式
クリー チャー
真 冬
ou st
配 っ
ヨー ロ
く っきり
弱 っ
マー キュリー
オリン パス
三 谷
飛び 込み
反 感
正 に
se y
ヘル シン
BOOK S
48 9
チャー シュー
S now
品 名
井 田
触 発
al ity
引っ 張る
春 休み
ig a
グルー ヴ
モ ニュ
リ サイ
変 性
Le ague
ギ ザ
防 臭
サ ターン
ヨコ ハマ
h ost
か ぎ
カ ッパ
乱 舞
ok e
マディ ソン
オル タナ
ヌル ヌル
ま わる
gre en
タ ッ
伊 吹
Fr ont
てれ び
ミ ノル
勝 目
高 所
マ ザーズ
崩 さ
炸 裂
P OS
T RO
ベル グ
柳 沢
笑 み
菜 園
ステ ロン
ミッド フィールダー
W inter
p an
陣 屋
d y
in ch
摩 耗
背 徳
レント ゲン
D ynam
K AI
桜 田
d em
兵 員
銃 器
ゴ ート
譜 面
ル・ マン
O ld
被 験
設 楽
霊 園
ボー カリスト
Champion ship
敷 か
艦 上
hy dro
ふ ろ
アシ ックス
百合 子
小 早川
ユー ラシア
ヒロ シ
B ul
図 解
ラファ エル
悲 報
機 甲
誓 う
馳 せ
ラ クラク
安 井
膨ら み
ウラ ジーミル
L R
主 食
隣 国
ish i
Ar m
篠 崎
自 慰
しの ぎ
ペ ガ
水 量
如何 に
き も
前 職
新 陳
社 屋
バイ ヤー
グレゴ リオ
40 2
ロマン チック
げ さ
グリ コ
Re volution
美し き
高 射
々 し
山 名
阿 賀
掛け 声
R KB
白 水
見 送ら
上 智
弓 道
水 辺
謙 虚
黄 昏
p df
暴 風
h ol
外 構
吉 沢
エレ メント
De ep
RA W
カブ ト
摘 出
絞 め
チェ ー
エー テル
メ シ
ic y
m ing
z er
プ シー
大 騒ぎ
ベ クター
真 意
コペン ハーゲン
ふ だん
必 勝
懸 け
等 しく
50 4
WOR KS
スロー プ
サッ ポロ
飼 う
dev ice
き き
一 刻
余 韻
長 瀬
ランチ タイム
F IG
c ert
大 喜び
街 角
か ぜ
外 寸
映し 出さ
とき わ
27 4
朝 方
適 時
取り 除き
ミュ ール
ディ ウス
ウイ グル
エ イベ
新 発
由 香
首 輪
as p
MA S
勇 敢
慣 例
見 出さ
誤 字
ムー ミン
o on
グ リン
単 調
読 了
アン ズ
ば な
後 頭
湯 浅
ただ ちに
古 都
ホー リー
ア レイ
漂 白
ジョ ジョ
名 手
z u
もの がたり
im g
宮 前
混 ざっ
ゲーム ス
t ouch
二 条
正 し
親 和
We ek
25 9
D iam
T AN
pl y
マリーン ズ
主 幹
左 折
F J
も ど
八 丈
ア ーン
感 受
決 まら
グ レース
ヌ イ
則 っ
雷 撃
じ く
小 岩
核 心
IT TON
ブダ ペスト
ヨーロ ピアン
あ そび
物 販
託 さ
共 学
比 奈
イン ペ
エド ガー
宿 場
アン アン
大 滝
木 の
臆 病
良 識
r ary
エ スタ
養 生
ST EP
6 70
突き 出し
ミラ ージュ
アイド リング
直 方
迷 路
ハイ ランド
He y
小 嶋
ター ジュ
マグ ニ
パ シャ
サザ エ
マクラー レン
さ つき
国 名
ター レ
W AN
収 まっ
至 福
ぼ ろ
橋 下
場 内
由 緒
ット ガルト
ドレッ サー
R y
s elf
序 列
サー モ
ISS N
こぼ し
ハプス ブルク
ッ ラ
暗 記
しゃ ぶり
根 幹
ウェ ポン
引き 金
AK O
D eb
か ぐ
体 裁
経 口
チュ ニ
横 た
イル ム
スク リー
マル セイ
ハマ る
レー ヨン
Manag ement
S HE
停 戦
疲 弊
ast ic
ダ ブ
思い がけ
レイ ラ
c ul
之 江
学 童
深 度
線 香
厳 禁
28 7
ライン アップ
ウェル ズ
めざ まし
エグ ゼ
ヴァ ール
リ タ
花 弁
散 見
バ リング
加 筆
空 席
染 まっ
預 かっ
ジェ ラルド
漂 っ
サンド ラ
ア ゴ
大 林
真 琴
VU ITTON
治 験
退 き
へ そ
ノ アン
分 社
報 知
茶 の
苦 言
25 8
が れる
コ バルト
ド ジャース
東 村山
活 き
新 旧
クト ン
rec ord
ぬ け
享 年
多 項
蒲 郡
シン ジ
介 石
押し 出し
LOU IS
h ome
t able
は たまた
口 元
発 声
相 生
鳳 凰
Le e
s il
堕 落
座 長
戦 勝
ハン ナ
ab ase
J FL
キ ール
執 っ
平 屋
無 色
諫 早
レイ チェル
小野 田
猪 木
留 まら
ワイ ナリー
ド メ
平 常
フォー レ
タ ッセル
神 官
鉄 拳
自 費
27 7
ポー ラ
N M
ロー ダー
スタ ディ
東 国
洛 陽
ジェ ラ
ジャ スティン
Acc ess
ラブラ ブ
平 城
笠 間
ディ レクション
05 16
is ch
イ デ
生き 残る
ッツ ォ
コン ベンション
K m
ほ たる
停 泊
ッツ ィ
たん ぽ
フィ スト
ver t
松 川
頭 頂
Th at
h u
t em
制 動
自 害
伊 織
馳 走
publ ic
ノ イド
付 さ
加 担
細 野
シ タン
きら ら
P F
ザ メ
一 歩
カボ チャ
I f
数 理
正 樹
振り 込み
勝ち 馬
コンピュー ティング
af ter
矢 作
ストライ カー
配 り
大和 田
モ グ
ぽ ど
キャ ッチャー
よっ ぽど
とも あれ
スペ ード
N ex
IC HI
平 川
着 想
賜 り
追 随
ルー レット
マイ ニング
処 遇
墳 丘
. "
名 阪
早 起き
置 け
はし ご
W B
名 神
イ ブン
左 上
動 態
戦 役
掘 っ
生 かさ
美 保
荒 らし
但 馬
老 廃
蔵 王
響 い
セ ゾン
銅 像
3 36
H MV
T u
崩 れる
レゲ エ
プ ッ
宣 戦
音 符
オリ エント
W a
ミ ゲル
草 木
バー ター
プラット ホーム
l ong
イ ヴァン
没 落
遣 っ
預 ける
C ount
レ ミー
奉 公
強 靭
拾 う
スチュ ワート
コ ダ
久 子
産 休
謎 解き
月 経
琥 珀
補 習
ad ow
漁 獲
火 傷
fl ix
オセ アニア
m es
ア バン
塩 田
ハル ヒ
よ ぉ
将 兵
立 像
フェ デ
ug g
裏 切っ
De f
り く
チ カット
ボ ッ
幻 影
課 さ
セル ゲイ
SAK AE
>_ <
V ISA
国 文
送 受信
G OL
白 血
AT S
イ ジメ
吉 永
電 荷
買い 付け
ベイ カー
通 さ
兼 ねる
ウェル カム
F ort
撫 で
アー ロン
G UN
ゃ く
ウ タ
リ ミット
不 純
トラス コ
ハ ノイ
今 泉
捜 し
有 価
積 立
長 江
かか と
r ound
差 額
手 渡し
袖 口
26 8
op e
竹 島
心地 よく
モニュ メント
P ac
巻 頭
企 て
カート ニー
コネ チカット
ひ たち
C IT
不 向き
拝 殿
ro t
いち ろう
ハ ロン
入 党
本 心
苦 し
ジュ ル
d v
毀 損
ま える
毎 時
真 木
TE X
C up
タ ックス
優 駿
寄 附
ドル フィン
ノ エル
3 45
天 童
須 田
およ ぶ
フライ デー
Y Y
h an
ヒ ヤ
関 門
ウ ナギ
値 打ち
ゲ ール
委 嘱
is a
呼ば れ
P ur
告 訴
後 払い
シェ ーン
MO D
で っ
セ オ
ロ イス
怪 し
股 下
札 所
欠 乏
Fut ure
同 区
審 理
マル ティン
材 木
t ab
バ スタ
慰 め
v ille
居 宅
コン ティ
オーソ ドックス
の 川
正 明
ib u
イ ネ
香 辛
速 水
St ates
満 洲
アフ タヌ
西園 寺
忠 告
菖 蒲
am in
往 年
R UN
マ レ
FI A
じわ じわ
SIG N
テ コ
クライ ム
照 れ
神 代
錠 剤
トランジ スタ
ナ ゴヤ
何 時
累 積
3 23
優 美
殺 意
ユニ コーン
一 座
祭 礼
かわ し
ロマン ティック
フォルクス ワーゲン
奏 でる
エス ニック
混ぜ る
GU CCI
す む
コン プレ
八重 山
各務 原
ハ ラス
江 津
n an
デ トックス
6 22
妊 活
見 捨て
口 紅
嘆 き
地 頭
最 安
PC I
F inal
ど け
ル ーン
レ タス
近 傍
ゲ イン
ル フィ
落 書き
さば き
幼 年
UN IX
アフタヌ ーン
転 ん
us ion
エイベ ックス
リ マ
御 影
異 論
高 梁
チョ イ
アル ・
大手 町
R ail
ex ample
8 90
差 分
3 14
実 費
散 らし
溝 口
h l
33 4
チャー チ
W X
づ か
不 変
騎 馬
27 9
ab a
引き 立て
G MO
AM O
Ac adem
F ig
先 導
カー ソル
レジ スタ
姓 名
英 訳
R en
観 葉
ダン ディ
は げ
18 49
ニュー ズ
字 体
添 える
謙 信
18 52
サン バ
Muse um
ぶ さ
交 尾
合 気
AS Y
ゲイ リー
l ook
プ シ
友 里
散 っ
ff ect
わ く
落 葉
ヴィ ジュアル
ギル バート
System s
す まし
グラ マー
マルセイ ユ
中 公
古 書
15 000
オー デリック
Vo ice
060 7
d b
不 通
名 産
正 絹
虹 色
聞き 取り
S IDE
ノ スタル
ビ ザン
ロー ザ
ヘル ツェ
菊 花
ファ ルト
た けれ
出 逢
he art
G IN
ヘ ブン
新 種
4 32
カ ローラ
剥 離
オリ ニスト
アナ ザー
引き締 まっ
戦 災
満 期
県 境
ヘルシン キ
租 税
ファ ックス
ビン ゴ
き もの
す こ
セ シル
喋 っ
文 体
無 期
艦 橋
見 なし
サー ン
か まい
ニ トロ
準 州
使い 道
安 楽
揚 陸
ノー フォーク
アイン シュタイン
キ ツイ
エスカ レート
カ イト
声 援
敬 語
素 性
オリ バー
6 90
誌 上
鏡 面
エ ティ
カ プリ
ヤ コブ
変 調
払 拭
и т
和 尚
サ ポ
落ち 込み
座 間
クレ レ
改 憲
ネ グロ
年 明け
急 進
洞 察
LE SS
Sh in
高 畑
18 45
形 質
こり ゃ
( _
現 世
29 4
挙 がっ
軍 需
届け 先
校 正
i w
態 様
概 略
無 実
g n
山 根
身 柄
台 中
摘 発
借り 換え
har rier
エリオ ット
ガ ジェット
自 室
チュニ ジア
し きり
上 洛
光 秀
射 出
相 乗
矢 田
ジョ ヴァン
Net flix
あげ よう
お おい
行き 届い
ヴュル テンベルク
H L
H ub
ボ ギー
メ ビウス
サラ ブレッド
GN U
ブエ ノス
ア ビス
争 わ
官 公
慎 太郎
読み 切り
エミ リー
スカル プ
拠 れ
有 償
陵 辱
セキュ リティー
共 立
稚 内
献 金
ジャ スティ
パーティ ション
有 識
訃 報
スー パース
ラブ リー
Mart in
ー ナ
適 宜
ビュッ フェ
瞬 く
道 筋
野 崎
始め よう
S to
f ood
各 話
所 見
群 像
青 柳
9 70
F ant
ま み
成 城
G ER
く しゃ
ら ー
カ イル
ガ ネ
入 館
岩 槻
R ON
つ まん
ミ ロ
学 説
花 屋
難 病
イー サ
飽き る
損 する
煽 り
ut en
焼き 鳥
増 発
麗 子
M OS
ティ ール
Dr agon
ツィ オ
返り 討ち
イ ボ
新発 田
同 族
ic on
ダイ ブ
タ ジ
新 地
ト ト
姉 弟
Jack et
サ ノ
オー ヤマ
マッ カートニー
ワト ソン
F it
y ear
デ ット
探 究
Sec urity
休 ま
外 付け
大 沼
流 量
美 顔
Sm all
吹 っ
就 き
バイ アス
F ace
生 野
18 46
こな せ
只 今
ゲ レン
等 身
ピカ チュウ
日 払い
毛 先
酪 農
銃 身
幻 覚
ME GA
, ,
労 使
飲 用
T own
愛 嬌
濡 れる
ステ ス
bl ock
COM IC
コンベ ヤ
D G
キ ーン
38 5
見つ める
ティ ックス
モン ロー
かき 氷
ンドル フ
T AC
大 げさ
惨 敗
アラ バマ
Dr ess
エ ブリ
過 疎
長 続き
雄 二
アイ レス
ハム スター
併せ 持つ
同 席
ec o
プー マ
PI X
b at
ち ひろ
軍 部
マイ レージ
オト コ
は れ
マ ホ
美 沙
P t
遠 州
プログラ マ
ナ ダ
水 まわり
es ch
チェ イス
遺 し
亜 紀
桃 色
ブル ズ
サン クス
7 90
ゾ ール
銀 魂
アーム ストロング
乏 しく
ジャ カルタ
アク ター
ば やし
交 感
大 館
g al
YKK AP
ね がい
欠 番
洗 車
罹 患
龍 一
26 9
セーフ ティ
バ ブ
食 う
40 8
ダイ アリー
ヴィ オラ
ぼん やり
パブリ ッシング
k u
き よし
ガ マ
園 長
示 談
ウェ リントン
IS U
28 9
ポリエ チレン
◇◆ ◇◆
ぶ っちゃけ
住 い
ネ ート
偉 い
チャ ッ
Or gan
マスタ リング
は まる
開 院
Bir th
お さえ
神 仏
オホ ーツク
正 則
準 ずる
ish ing
コー ディング
ツン デレ
K OKU
t ax
ウ ブ
オマ ージュ
y er
保 養
推 察
あげ れ
真 人
筑 前
ロドリ ゲス
我 孫子
ガル ド
P ink
18 51
38 4
シマ ノ
エ ベ
ミ ッチェル
式 部
懐 疑
木 田
27 00
ay s
- >
T rain
ノ ラ
m ot
油 絵
追 いかける
重 巡
アル ギ
千 早
中 絶
難 解
an te
ソ マリア
ミ エ
元 首
搾 取
茅 野
パル マ
松 任
波 乱
部 局
なお す
Ag ain
Explor er
b est
同 氏
案 の
マネ ジャー
キロ ワット
如 月
配 る
18 06
エンタ テイメント
p ass
案の 定
W ood
カ セ
ホイ ット
ウ クレレ
バ ド
偏 り
怠 っ
祝 賀
野 川
ig er
フロ ム
エスト ロ
ソ フィー
崩 す
般 若
all cinema
仕 込ん
傷 つける
多 湿
if y
半 蔵
リサイ タル
ち がい
栗 田
透 き
隅 田
焼き たて
っ ぱい
保 冷
キ プロス
渡 邊
温 める
冷え 性
連 夜
かか わり
ジャス ミン
I r
岩 盤
潰 瘍
郷 里
オーク ス
ment s
F ab
F air
R u
似 合わ
陽 一
マッカー サー
mod el
レボ リューション
小 森
老 若
オフ セット
スパーク リング
休 め
Re port
W all
悶 々
ロ ンド
拒 ん
温 厚
湿 疹
us ed
いか ん
アジャ スター
J ET
パ ウンド
日 南
英 樹
0 11
実 弟
ブラン コ
朝 夕
帝 京
無 口
切り 口
イエ ズス
Pr int
ゼク シィ
党 内
破 格
問い かけ
牽 制
キャ メル
アキ バ
NOS UKE
b el
ヌ ン
夜 叉
湖 南
湿 原
茶 葉
良し 悪し
プエルト リコ
か ぁ
ピー ナッツ
作り 上げる
W BO
柚 子
永 続
ビュ ル
K g
分 署
向 かわ
下 さり
屏 風
ニュー オーリンズ
ハー レー
長 久
ラグ ナ
たどり 着く
レベ ッカ
O C
ボ ボ
准 将
販 路
ファ ッ
Air b
人 狼
譲 受
グ ライダー
両 軍
長 嶋
un o
ak am
X Z
し だい
石 けん
カッ ティング
滅ぼ さ
コタ ツ
ス ケープ
大 杉
天 間
胸 囲
ケ 谷
上 回り
固 形
園 児
A udio
H onda
廃 藩
異 星
糸 魚
親 しん
子 守
正 門
レン ジャーズ
ドー ピング
捕 物
フェロ モン
多治 見
V D
チ ーク
球 技
離 乳
チャー チル
トロン ボーン
VO CAL
スネ ーク
殺 そう
生 ぬるい
取り 決め
KE I
バ テ
捕 縛
殺 傷
総 社
鉄 分
館 長
ヴィ ング
卵 巣
オン タリオ
て ぃ
ペ シア
Z ONE
中 綿
昼 夜
タナ ベ
ミハ イル
f acebook
受 動
頓 挫
バーン ズ
国 造
朝 霞
コン シン
アン パン
外 周
女 体
沢 尻
立ち 上がる
ほう れん
AS A
フォン ソ
手伝 う
マキ ノ
N F
ア セット
現 す
遊 べ
U s
W AT
ヤ ラ
平 岡
○ ぽ
ち ○ぽ
増 補
目 さ
訪 ねる
スト リップ
懐 かしく
横 行
竜 巻
しば し
沢 東
苦 い
カ ナル
似 顔
0 70
青 み
ステ ルス
be at
激 し
28 3
l ar
捕 え
35 7
R G
成 虫
BAS IC
三 洋
治 め
高 千穂
気 品
汚 職
芽 生え
I MP
大 隅
混 血
秀 雄
雅 治
高 城
覆 す
ヒ レ
モ イス
乗 れる
ダ イン
全 校
arch ives
: [
千 本
変 則
糾 弾
好き 嫌い
テ クト
城 郭
Be e
み つけ
劣 ら
る り
ピ ッチャー
哲 夫
極 道
mm y
何 千
内 服
埋 没
総 局
ヒー ローズ
ベー カリー
殺 虫
直 系
省 令
韓 流
仕事 場
AV EN
ビン ビン
テ ・
馬 主
コン デン
iv ed
NA ID
に ょ
ア ステ
暴 言
本 科
束 縛
王 権
wh ite
S OS
片 思い
甚 だ
製 鋼
ニ クソン
入れ 歯
バイ ブル
専 科
林 家
グラ ハム
PRE SS
主 君
利 権
大 丸
金 型
受け 継ぐ
千 鶴
孵 化
跨 線
待ち 受け
海 部
取り 替え
} ;
乱 れる
スカー レット
ニ ッチ
ネ バダ
シャ リ
40 7
は さみ
短 所
罵 倒
パー マー
Soc ial
ヨー カ
PR IDE
バリ ウム
た ず
出 前
涼 し
先 々
フィン ガー
結び つけ
DL C
割 当
(^ _
PREMI UM
拾 わ
荻 野
近 況
糸魚 川
2 19
直 筆
ボル チ
ダイア モンド
J am
p ower
グ チ
見 直さ
ト マ
ネ ア
冬 期
白 地
35 1
コリン ズ
リ ザ
キ サン
ヒ デ
広 まり
ワー スト
整 腸
途 方
誹 謗
アス パラ
Se a
ス レイ
46 5
昼 休み
切り 裂
も ぎ
エ フェ
大 柄
数 多
旧 式
設 営
分か ち
ペ レ
修 飾
隠 れる
ハイレ ゾ
借 地
傾 倒
D ar
シ ゴ
プリ マ
DI E
ハ ッカー
判 り
牟 婁
re en
ヌード ル
パンタ グラフ
スーパ ースター
浩 司
EN TER
U ST
さ おり
ひ つ
壊 れる
ダイ キン
LE Y
ッ ティング
v ers
ポ ーツ
反 物
撲 滅
確 固
打ち 込み
否 決
4 97
と たん
熱 気
ディ ール
ノ ートル
俊 一
50 3
パル プ
す っぽん
大 日
羽 島
譲 ら
34 3
ち ば
群 島
フィ ナンシャル
ル ビ
うれ しく
カエ サル
琢 磨
グ ース
後 輪
来 い
禁 忌
鋼 製
ater ial
やわらか い
た がっ
試 写
旨 い
ッカ ケ
", "
苦 難
メン ス
マ ギー
仕 入
恒 久
惜 しい
文 禄
裏 技
覇 権
18 15
ing er
げ き
ち くま
空 海
en ch
悔 い
ーム ス
You ng
リヴァ プール
m el
カ スター
ガ ング
ゲ ッター
命 題
由 良
食 肉
o e
ヴァ レ
テレ サ
魅 せる
愛 らしい
携 え
眠 く
隆 起
ナ メ
すれ 違う
かた わら
I BF
拡 幅
遠 足
ミ ネル
ai re
シュトゥ ットガルト
典 子
変 奏
洋 室
p et
勃 っ
力 量
擬 人
被 曝
重 き
t ri
お だ
HK T
TOK IO
レー ナ
コード レス
yout ube
l as
ブレー ン
F AC
b ot
根 気
AM D
小 名
文 教
本 陣
ion e
ミュ ラー
M ind
V AL
m Ah
自 給
cy cl
法 典
線 型
ナック ル
1 2000
石 材
見せ かけ
惜 しみ
Te le
成り 立た
ハ グ
内 地
ST AND
ノー マン
港 北
盲 目
D or
ア ミン
占 星
分 娩
化 身
墓 石
狂 言
ター ド
V IDE
W M
す っぽ
早 かっ
議 院
尾 翼
居 留
書 庫
桐 谷
差し 上げ
ポスト カード
ニ トリ
出 入口
適 量
追いつ か
離 反
fe e
アス ファルト
踏み 込ん
パ ・リーグ
映 える
チャ ール
MA C
39 9
快 晴
異 形
ST ATION
有 意
身 延
辺 野
休 戦
珊 瑚
躍 動
UN TER
NC ID
28 4
トラ ベ
ヘルツェ ゴ
D Q
L ike
ぜい たく
j un
丸 太
法 事
テー ラー
エレ ナ
ツェ ン
悪 事
goo gle
島 崎
買い 取ら
Lad ies
レク サス
ウィス コンシン
前 月
四 肢
パイプ ライン
西 脇
いま どき
下 面
ジン ジャー
ムチ ムチ
ブエノス アイレス
テ ナー
両 論
千 夏
擦 れ
灌 漑
キュ ール
ノー リツ
AD Y
スト ッパー
AP E
呼び 出す
ブレー メン
イン フィニ
h is
デ ム
立ち はだ
パル コ
が ま
く すり
ぬ れ
ス ノ
参 与
存 命
緑 化
足 袋
Mag azine
煉 瓦
TO WN
アベン ジャーズ
3 18
ど ら
美味 い
リ キ
下 表
遊 牧
まし ょ
守 谷
弁 論
禅 寺
A i
欠 かさ
ハン パ
北 道
拍 車
真理 子
固 める
E st
h ard
一 様
入 港
" 」
寝 返り
本 庁
タチ カワ
健 闘
トロ ピ
官 吏
ect or
ogr aphy
ナ タリー
35 4
p al
映 り
18 37
シュ タイ
酒 類
D GE
小 人
拳 法
ポート フォリオ
高 見
モノ グラム
・ バ
答 申
イエ ム
フ イルム
矢 口
高 熱
W ild
フェ ー
厚 労
或 る
標 榜
ビ エ
臨 み
取り 組
ト ワイ
一 関
38 7
au x
WW F
ハイ ツ
fl ower
Ro om
スナイ パー
オ ラクル
祀 っ
st ore
ブラジ リアン
つ た
短 め
思い つく
ピ ョ
失 禁
放 流
マルチ ラス
グラフィ ティ
FU CK
Bas eball
能 代
草 案
スチュ アート
兵 隊
温 か
ライプ ツィヒ
M TV
W L
ダ ミー
石 室
折り 紙
川 柳
私 有
阿 倍
ド ロン
出 国
敬 愛
20 30
リン クス
可 否
枢 機
清 張
飯 能
いき り
淳 一
貯 まる
シェ イク
M ic
忍 耐
う な
揺 さ
構 文
肉 厚
迷 子
アン デル
An y
加 味
退 位
重 慶
Os aka
王 政
覚 書
Ul tra
カスティー リャ
水 車
終 止
マー ブル
37 1
ボルチ モア
f it
ナ ッ
尖 っ
ギブ ソン
ド レ
宗 理
正 史
逃 避
駐 日
い とも
ワー グナー
読み 返し
W iki
m edia
葉 子
キャ リ
読み 書き
um n
フラ メン
av ex
ME TAL
X Y
ト ミ
原 生
打 開
コミ ット
ヴィ アン
80 8
素 早い
S BI
c ount
交 ぜ
専 ら
沈 む
鳴 海
ライ ヒ
キャ メロン
サ ニ
ed s
vent ion
マ ード
佳 奈
兆 し
おさ め
ゴ ウ
別 館
既 成
as ure
八 女
名 店
ブロ ッコリー
アド リブ
ウォー レン
M BA
シ チュー
田 野
花 壇
裾 幅
同 封
66 6
Nik on
品 薄
真 由美
and y
シャイ ニング
来 れ
18 47
ヌ キ
弁 済
浪 費
押し 寄せ
orn ing
ス ヌー
ヴォ ン
辺野 古
ピ レ
AR M
ニン ジャ
ゲー ミング
Pe ople
S ign
想 起
相 川
X C
ハロ ゲン
キ ク
ニ ホン
天 照
サン ・
乗り 換える
担い 手
P ier
威 嚇
顔 料
た どる
ま ぐ
画 廊
係 員
湧 水
TR Y
ザ クラ
教 職
鹿 屋
ハラス メント
F IGHT
キ ョン
心 構え
取り 戻
W el
é s
円 錐
臨 済
車 軸
音 域
ブラン ト
す し
除 雪
シャ ロン
irt ual
グ ミ
鍋 島
ラト ビア
ペ ーター
侵 食
残 せ
環 礁
野 上
ゲレン デ
N ING
ニ ッツ
丸 出し
艦 首
ジ ワ
照 会
寄 宿
末 日
アライ アンス
性 癖
潜 む
ノ ロ
残 党
育 む
車 中
遣 う
ジン ガー
47 5
ゾ ク
大 英
相 良
エ ミー
ロ ニア
済 州
舞 子
奇 抜
校 章
精 米
リ ポ
老 婆
P u
スポ ル
ア テン
勤 続
奔 放
成 っ
V V
レ フト
大 吉
真 正
西 島
くら べ
ボ ツ
洋 平
n ik
旅 先
閑 静
一 役
ダー ウィン
ほ しかっ
美 波
а т
イ メ
忍 法
音 節
レコ ーズ
ふ そう
前 任
寝 心地
同 乗
都 督
C LO
ビ ター
北 魏
が め
ド ッ
ベ ロッ
深 かっ
縮 め
しゃぶ しゃぶ
Sh are
おお さか
蕎麦 屋
into sh
ぎ れ
既 刊
背 骨
H uman
o ch
44 4
雅 彦
ピー マン
MA D
em on
At t
除 か
食 道
目覚 まし
国 東
壬 生
悦 子
極 小
ユー リ
モノ トーン
独 奏
纏 め
e lect
居 候
島 民
生 業
立 石
粗 末
絶 版
検 挙
毒 素
気 まぐれ
合 板
ü n
リ ペア
菊 川
ジャ グ
23 00
サ ド
ハ ングル
嘱 託
失 神
スーパー マン
トレー ダー
3 22
モ ・
尊 氏
平 年
ソ ーン
トリ コ
相 殺
思い 切り
ap t
ラテン アメリカ
s um
デ フレ
リ ガ
ult ure
打ち 切ら
向こう 側
T ake
キャ ディ
絶 た
都 留
間違 える
損 ね
春 香
ゲーム ズ
F act
つ かい
抗 原
著 述
ロー ゼ
GU I
シュ ラ
om on
板 倉
被 弾
アレンジ メント
香 ば
高 けれ
18 44
直 っ
ダル マ
ド ッキング
木 綿
飛び 出す
Tr ue
小 夜
眉 毛
計 り
TE C
S AP
自 画
龍 之介
ナン シー
白 木
陽 菜
48 7
af t
かつ ら
ニ ョン
年 限
運 気
ステ ファン
マヌ エル
宜 野
活 かせる
i od
建 ち
折り 合い
リバ ティ
; }
原 典
水 俣
波 及
研 鑽
I KE
キ ッカケ
・ イン
Sh ort
ホ ホ
ロ メオ
安 房
痛 快
引き 連れ
ぼ け
税 込み
し っぽ
仁 美
励 む
浜 名
>_< )
ず く
ラ ピ
文 人
B at
往 生
背 負い
仕事 探し
47 9
エ ゾ
溜 まる
18 03
素晴らし かっ
セネ ガル
境 地
大 場
新 約
氷 室
泊 まる
34 6
戸惑 う
暴 落
ミン ゴ
か なっ
ジ ナ
希 薄
AR C
リ ッド
井 伊
an th
切り 札
乗り 継ぎ
審 美
まと い
湿 っ
読 もう
33 8
オース ティン
ー ラ
山 寺
終 電
陸 前
wh ich
f re
於 け
石 岡
it an
ね っ
今 頃
言い 回し
取 消
バイ ナリー
荻 窪
追 従
アルギ ニン
有 っ
癒 す
DE EP
マ ーン
待 て
旋 風
萎 縮
割り 切っ
3 17
ほ っこり
パラ グアイ
ガッツ リ
ね らい
倉 吉
バン カー
乗り 込む
ミニ マム
振る わ
GAL AX
V iv
h on
おり もの
掘り 下げ
刺 さっ
ガ エル
変 電
懐 中
資 する
SON G
KOKU YO
た どっ
煮 物
駅 近
ピカ ピカ
さ がし
見 送っ
高 座
み こ
仲 人
栗 東
門 人
デン バー
ニュルン ベルク
e en
ス ティング
80 1
後 醍醐
焼 か
取り 引き
フロー ラ
add ing
フランチェ スコ
エ スパ
八 ヶ岳
大 帝
東 上
京 大
小 ぶり
。 "
リバー シブル
Que en
G UE
せ と
み っ
ら ら
ニ ース
無 敗
ロッ ソ
L ite
ぐ う
アンパン マン
繋 げる
コン パイ
正 徳
盛 っ
金 太郎
エ ドゥ
ザ ニア
抗 がん
LU X
シュトラ ウス
K YO
争 点
切り 離し
マグニ チュード
H SL
劉 備
ブル ン
オード リー
t our
秀 逸
垂 らし
無 二
取っ 手
Dis play
ほ め
ウィ メンズ
入り 込み
ひとり ひとり
埋め 込ま
Airb nb
葺 き
エン ゲージ
as k
技 巧
灰 皿
ファンタ ジア
ア ントン
強 襲
接 吻
死 別
雅 之
とん ねる
3 26
A th
ブ ティック
呪 術
探 さ
怯 え
ショ ニング
アメ ニティ
b order
み ゆ
ケ ーター
東 岸
降 雪
まあ まあ
二の 腕
- 、
i D
天 海
新 調
浪 漫
ジェ ファーソン
士 業
磯 部
若 菜
un ter
ケ ニー
屋 号
見 当
錦 糸
とも だち
le in
値 上がり
CO RE
L X
亜 衣
赤 帽
ピー プル
DO G
ハ フ
倒 せ
純 愛
アル ペン
DC G
ティ アン
GL AY
ソリューション ズ
on ly
チェ ッカー
高 潮
フィ ナーレ
トー キョー
短 波
草 食
ハイ チ
ar is
セル ロース
確 執
Comp uter
一 手
申 立
アン クル
て は
ター ニュ
R uss
T an
プロ ピル
SE A
ミ ケ
日 ごろ
18 36
統 率
トリ ニティ
ぬ か
布 袋
イト ン
Ob ject
身 動き
★★ ★★
ピ ニオン
妨 げる
志 穂
栄 子
読 本
om en
偉 人
遮 熱
バー バリー
Air port
別 当
バチ カン
ロ ル
宮 地
武 官
細 心
那 智
ST V
EX PO
正 気
簡 便
上 巻
風 車
m ol
m ake
飢 饉
らか し
MV NO
庄 司
本 意
10 10
ティ アラ
ヴァ ージン
小 百合
av er
ベネ ディ
散り ばめ
ず ーっと
古 城
18 12
CO ME
吉 宗
家 内
山 科
隠 そう
芳 賀
入 省
18 43
ワイ ヤード
取っ 替え
伝 言
劣 勢
ur ch
ライト ニング
エイ チ
uk u
ネ ・
ヒ ストリー
東 広島
甲 冑
道 内
ジュ ラス
B J
実 母
as u
請け 合い
4 11
米 原
賢 一
33 9
宗 谷
GEN ERATION
ヨド バシ
コ ズ
救 難
n h
素 質
豊 前
取り 壊さ
個 所
底 面
従 者
饅 頭
オリジ ナ
執 念
ファ クト
テクノ ロジ
森 友
空 室
総 研
プラ ネタ
五 感
真 偽
秘 匿
鼻 炎
IT S
連れ 込み
EP A
A DV
ロ レン
寓 話
無 き
被 せ
Mac intosh
手 先
魔 獣
公 主
支 庁
ブラン ディング
5 500
三 方
寝 屋
聖 歌
GR AND
寝屋 川
m u
ワ ーム
中 目黒
亀 岡
千 春
揺 らし
素 股
縄 張り
ビ ズ
ハッ キング
マネ ギ
グ チョ
散 る
芸 者
谷 町
邦 彦
サイ レン
オーバー ホール
上り 線
み ょう
巡 業
横 丁
山 門
近 場
中 里
流 布
球 磨
竹 本
サイ パン
St ri
wh en
アベ ノミクス
COMP ANY
殺 戮
法 曹
違 憲
88 8
ブレー カー
エク ストリーム
aw ay
タ マネギ
ト ニン
加 計
海 防
and a
Dan iel
同 郷
緩 衝
27 1
マグ ナム
可哀 想
疫 病
シャ ッフル
み すず
常 滑
建 武
戦 乱
発 せ
老 中
飯 山
し びれ
頭 角
刑 罰
泥 酔
ジェイ ク
0 20
何 れ
作 為
魔 道
マー チン
ハロ ルド
用 量
能 楽
連 作
フェ ニル
ブレー ク
栄 一
28 1
あい まい
P X
伊 佐
太 極
st ream
OK I
下り 線
凌 駕
名 跡
平 氏
あ しら
下 巻
乳 製
re al
みなと みらい
再 起
高 次
ro ad
j r
区 民
ap ter
F el
T alk
う ってつけ
ig o
もらえ れ
シャ ール
切り 捨て
光 年
梅 酒
測 っ
英 明
ステ ッド
デカ い
Aut om
76 8
tr ack
T ool
不 運
緩 い
茉 莉
イラマ チオ
N ame
ロ ペス
多 面
杏 奈
連 戦
ブル ガリ
で かい
ノ ルト
室 温
駅 員
泣 か
草 野
け もの
惜 しく
フリー ダム
気配 り
宮 司
17 89
の ら
乖 離
排 他
砂 丘
遊 ば
フェ イズ
HE ART
戦 犯
長 かっ
アメ カジ
仕事 帰り
S ize
帝 政
過 大
Christ ian
G ATE
フ クロウ
買い 手
Ind ust
ノートル ダム
パ ンドラ
中 南米
州 間
砂 川
辞 し
ST ORY
De ad
歩 か
言い 切れ
我 部
初 年
微 量
AM S
延び る
付 記
出 水
外 回り
皇 居
ブル ックス
De ut
ser ies
3 200
申 立て
酷 評
モン ゴ
ネ フ
儲 かる
転 覆
ジェ ノ
しゃ べる
K M
и н
ギ ム
客 演
ジャー ナリズム
浙 江
アーム ズ
A ud
否 認
和 洋
アン サー
は は
ス ランプ
つく づく
人 衆
香 る
トー レ
かえ り
ペガ サス
m ine
パン パン
ハ ビ
ut t
滑り 止め
l t
セ リア
体 毛
宇佐 美
戦 列
武 帝
エア バス
夕 陽
車 輛
カン ジ
スワ ップ
K IT
é e
入 籍
同 位
楽し もう
アッ シリア
バ ケーション
漕 ぎ
NOR TH
デ ミ
ロ リータ
キシ ジル
プレジ デント
藝 術
バー クレー
パワ ハラ
今 野
叙 任
新 横浜
祓 い
に じ
ジ ングル
ポ コ
直 売
入れ 替わる
二 男
唐 突
特 区
玉 木
用 達
オー レ
あ やめ
折 々
望 め
29 2
s r
渋 い
挙 兵
ぐ らし
さ れ
持 分
狂 う
習 う
ジャ ブ
み ずみ
下 品
抜 本
長 大
スプレ ッド
利 尻
号 泣
礼 金
持ち 前
選り すぐ
空 爆
フレ キシ
追い 詰める
てん かん
∀ `)
価 額
曲 折
RE N
// //
バ スターズ
箪 笥
みずみ ず
4 16
暴 れん
脱 ぐ
os ph
t ag
戦 没
H H
土 田
硝 酸
sec ond
マ ング
傷 ん
劣 等
溶 媒
ミレ ニアム
徘 徊
片 足
皮 質
ひい ては
ホフ マン
": "
暴れん 坊
n u
わ う
サ ハラ
流 産
言い 伝え
風呂 場
con nect
セバス チャン
SE EK
BRE AK
版 権
賛 美
詰め 合わせ
Ber lin
エディ ン
イ フ
黄 緑
Tim es
一 節
発 火
イン バータ
For m
とんねる ず
八 坂
居 合わせ
50 6
バイオ ハザード
YOS HI
Y OKO
急 逝
大黒 屋
洋 上
18 32
入れ 替わっ
ボル ボ
さ じ
与 那
祥 子
取り やめ
セ ビ
吸 入
周 遊
aa aa
リ プ
議 案
00 8
ァ ー
シ ズ
もも いろ
セッ サー
朝 比奈
IO C
か ならず
遊 技
持ち 家
だ ぁ
俳 人
振 込み
花 月
しみ じみ
華 族
ひら がな
E CO
晶 子
県 営
ファイ ナリスト
イエ メン
マルチラス スーパース
Sm ile
Hen ry
B ob
ヒ ッチ
上 山
立ち 寄る
がら せ
FR P
プ ードル
ベ オ
楽 観
pos ition
ハ ダ
体 幹
障 子
あり さ
ステ イン
28 2
e very
隅 々
兆 候
大 嫌い
転 機
YO UR
HA MA
アジ ト
sy n
みち のく
不二 雄
マシュ マロ
ラン ダー
ドレス デン
つづ き
び ょう
ブロード バンド
台 南
砲 身
捻 出
藤 森
山 西
装 束
ジャ ケ
ダ ッチ
普 天間
膨 れ
乗り 越える
R i
一 樹
ch annel
マイ ノ
ov a
の まま
曲 面
生 ずる
あり のまま
ジェ フリー
90 1
宮 津
生まれ 育っ
36 1
突き 止め
E VA
サ ヤ
検 品
見 落とし
U A
ウォー マー
防 弾
チャ レンジャー
ビル ダー
寄り添 っ
ヘルツェゴ ビナ
刺 青
引き 込ま
ガス カル
ヘッド フォン
ゼル ダ
ブ リスト
偶 数
板 野
桃 園
身 代わり
小 諸
はじ まっ
Wh o
愉 しみ
拓 郎
の べ
・ ク
方 角
杏 子
里 親
サイ フ
Bre ak
洋 介
瑕 疵
巻き 起こし
サント ス
ホメオ パシー
復 職
シボ レー
レ ヴィ
降 ろし
スト ーク
すれ 違い
ヤマ ダ
PL AN
ほ ほ
梨 子
バー ナード
FI RE
d in
w here
天 龍
茶 会
しま おう
サン ガ
IN C
・ シュ
油 彩
要 人
ヤミ 金
早 世
続 投
おと ぎ
福 建
笑 える
18 41
は まり
は しゃ
ぽ て
ベ ゼル
乱 用
28 00
f al
ボ イル
分 光
商 科
起 伏
防 炎
イン プット
38 1
マダ ガスカル
z h
パ トリ
三 村
那 賀
かか わっ
GALAX Y
J IN
Y am
ラ ッ
分 与
岩 見沢
é r
切 腹
福 亭
笑 福亭
UR I
ボン ネット
pro gram
M ain
セ リーヌ
劣 っ
武 井
T ext
十 二
18 01
サイ ケ
ポー カー
植 栽
程 よく
36 8
ビ ロ
与 謝
手 記
真っ 黒
間に 合う
ベ ガ
商 務
帰 路
甲 信越
伺 う
嫌 がらせ
破 局
18 42
とて つ
H it
S ar
・ オ
腐 っ
フォー メーション
od a
アロ エ
推し 進め
安 西
買 主
迎え 入れ
グル タミン
セ ナル
ド ム
マ フ
平 松
ひそ か
ジャスティ ス
埴 輪
悶 え
相 鉄
絡 ま
高 梨
仕事 人
ミカ エル
ed a
R am
ニ ェ
渡 来
ent al
クワ ガタ
美 食
ダ マ
ピ ロー
分 隊
戊 辰
蓮 華
西 町
鎮 痛
乗り 入れる
富士 宮
ヴェスト ファーレン
j u
t om
宮 澤
大 系
横 川
18 08
チョ ク
ふ わっ
ド ルト
労 組
合 皮
押 印
ST EM
BS D
士 気
コン コース
ロー マン
ジョ インテ
n at
榴 弾
プロパ ガンダ
ビ ト
マ エ
埋 立
銭 入れ
36 4
平 尾
浸 し
絵 図
at in
38 9
Or ch
Manag er
新 日
晴 らし
脚 光
55 6
追い 出さ
手 抜き
プラ トン
ガリ シア
ゲゲ ゲ
W ave
づ ら
te gr
Nex us
シ ウ
高 貴
18 39
AV A
はん こ
大船 渡
イ ースター
ダ ディ
宇 賀
格 式
麒 麟
Bl ood
pl o
岸 本
植 樹
濱 田
秀 一
端 的
A sh
噛 む
生 贄
密 教
雅 人
まさ し
ポチ ポチ
G un
ヘ ラク
多 年
始 終
な せ
ト レンチ
染 める
CO OL
イノ シシ
R W
パ ニ
通 帳
阻 ま
シェ ット
S QU
プレ イング
ボディ コン
ム ートン
充 てる
秀 明
聴 け
風 雲
UN K
拓 哉
リス ボン
デイ ジー
シ モンズ
安 かっ
聖 域
遅 かっ
ヴェー ダ
内 覧
叱 ら
売 ろう
イン プレ
額 縁
スト ラク
サー ベル
IP v
グロー リー
アカデ ミア
ウインド ウ
江 田
真 下
34 9
S FC
p ix
帰 投
幸 雄
新 色
落 胆
呼び かける
ORIGIN AL
ネ ト
シン シナ
ピン ポイント
無 論
可 児
18 14
裁 縫
防 波
日 給
闘 病
アン バサ
アニ バー
そ ぐ
催 促
勿 体
服 薬
論 議
33 7
金 運
館 林
is co
37 6
T able
下 士
18 18
N L
高 坂
ジェル マン
ゲ イル
刷 り
古 き
陰 性
ブラ ザース
山 車
期 末
満 腹
衰 弱
モル タル
こ ぎ
偏 光
居 間
日 陰
秘 話
せん しゅ
b ase
ヒ ク
念 入り
とう きょう
Mar ia
永 く
MO TO
歯 学
花 形
ローズ マリー
ハヤ カワ
にん じん
H OL
ば す
む く
巣 鴨
ヴァ イス
ブラン デンブルク
4 35
植 村
20 25
打ち 込ん
ブルー ノ
嫡 子
プロ ップ
引き こもり
l rm
分 厚い
チャップ リン
Aug ust
K l
リ ザーブ
台 帳
大 學
BE L
歯 茎
黄 み
スク ーター
D W
ジ ス
樹 齢
艶 やか
ね い
カー ク
スキャ ナー
H an
P HO
ゼ イ
前 座
医 大
